#include "model-RessNet.h"

alignas(16) const unsigned char model_ResNet_quant[] = {
  0x20, 0x00, 0x00, 0x00, 0x54, 0x46, 0x4c, 0x33, 0x00, 0x00, 0x00, 0x00, 0x00, 0x00, 0x12, 0x00, 0x1c, 0x00, 0x18, 0x00, 0x14, 0x00, 0x10, 0x00, 0x0c, 0x00, 0x08, 0x00, 0x00, 0x00, 0x04, 0x00, 0x12, 0x00, 0x00, 0x00, 0x18, 0x00, 0x00, 0x00, 0x48, 0x00, 0x00, 0x00, 0xf8, 0x0a, 0x00, 0x00, 0x08, 0x0b, 0x00, 0x00, 0xe0, 0x33, 0x00, 0x00, 0x03, 0x00, 0x00, 0x00,
  0x01, 0x00, 0x00, 0x00, 0x0c, 0x00, 0x00, 0x00, 0x08, 0x00, 0x0c, 0x00, 0x08, 0x00, 0x04, 0x00, 0x08, 0x00, 0x00, 0x00, 0x20, 0x00, 0x00, 0x00, 0x04, 0x00, 0x00, 0x00, 0x13, 0x00, 0x00, 0x00, 0x6d, 0x69, 0x6e, 0x5f, 0x72, 0x75, 0x6e, 0x74, 0x69, 0x6d, 0x65, 0x5f, 0x76, 0x65, 0x72, 0x73, 0x69, 0x6f, 0x6e, 0x00, 0x21, 0x00, 0x00, 0x00, 0xac, 0x0a, 0x00, 0x00,
  0xa4, 0x0a, 0x00, 0x00, 0x8c, 0x0a, 0x00, 0x00, 0x74, 0x0a, 0x00, 0x00, 0x60, 0x0a, 0x00, 0x00, 0x4c, 0x0a, 0x00, 0x00, 0xfc, 0x09, 0x00, 0x00, 0xac, 0x09, 0x00, 0x00, 0x5c, 0x09, 0x00, 0x00, 0x0c, 0x09, 0x00, 0x00, 0x6c, 0x08, 0x00, 0x00, 0x5c, 0x07, 0x00, 0x00, 0x4c, 0x05, 0x00, 0x00, 0x3c, 0x03, 0x00, 0x00, 0x9c, 0x02, 0x00, 0x00, 0x4c, 0x02, 0x00, 0x00,
  0xbc, 0x01, 0x00, 0x00, 0x1c, 0x01, 0x00, 0x00, 0x8c, 0x00, 0x00, 0x00, 0x84, 0x00, 0x00, 0x00, 0x7c, 0x00, 0x00, 0x00, 0x74, 0x00, 0x00, 0x00, 0x6c, 0x00, 0x00, 0x00, 0x64, 0x00, 0x00, 0x00, 0x5c, 0x00, 0x00, 0x00, 0x54, 0x00, 0x00, 0x00, 0x4c, 0x00, 0x00, 0x00, 0x44, 0x00, 0x00, 0x00, 0x3c, 0x00, 0x00, 0x00, 0x34, 0x00, 0x00, 0x00, 0x2c, 0x00, 0x00, 0x00,
  0x24, 0x00, 0x00, 0x00, 0x04, 0x00, 0x00, 0x00, 0x2a, 0xf5, 0xff, 0xff, 0x04, 0x00, 0x00, 0x00, 0x10, 0x00, 0x00, 0x00, 0x31, 0x2e, 0x31, 0x34, 0x2e, 0x30, 0x00, 0x00, 0x00, 0x00, 0x00, 0x00, 0x00, 0x00, 0x00, 0x00, 0x98, 0xce, 0xff, 0xff, 0x9c, 0xce, 0xff, 0xff, 0xa0, 0xce, 0xff, 0xff, 0xa4, 0xce, 0xff, 0xff, 0xa8, 0xce, 0xff, 0xff, 0xac, 0xce, 0xff, 0xff,
  0xb0, 0xce, 0xff, 0xff, 0xb4, 0xce, 0xff, 0xff, 0xb8, 0xce, 0xff, 0xff, 0xbc, 0xce, 0xff, 0xff, 0xc0, 0xce, 0xff, 0xff, 0xc4, 0xce, 0xff, 0xff, 0xc8, 0xce, 0xff, 0xff, 0x7a, 0xf5, 0xff, 0xff, 0x04, 0x00, 0x00, 0x00, 0x80, 0x00, 0x00, 0x00, 0xf2, 0xe5, 0xff, 0xff, 0x82, 0xf6, 0xff, 0xff, 0x15, 0xec, 0xff, 0xff, 0xb4, 0xf7, 0xff, 0xff, 0xd2, 0x1a, 0x00, 0x00,
  0x1d, 0x00, 0x00, 0x00, 0xf9, 0xf4, 0xff, 0xff, 0x3f, 0x15, 0x00, 0x00, 0x97, 0x04, 0x00, 0x00, 0x07, 0xf8, 0xff, 0xff, 0x21, 0xf9, 0xff, 0xff, 0x9d, 0xfa, 0xff, 0xff, 0x9d, 0xf3, 0xff, 0xff, 0x2c, 0xfe, 0xff, 0xff, 0xee, 0x14, 0x00, 0x00, 0x57, 0xea, 0xff, 0xff, 0x37, 0x06, 0x00, 0x00, 0xc5, 0xfd, 0xff, 0xff, 0x04, 0x19, 0x00, 0x00, 0x2e, 0x1b, 0x00, 0x00,
  0x7f, 0xff, 0xff, 0xff, 0xe5, 0x0d, 0x00, 0x00, 0x3f, 0xfd, 0xff, 0xff, 0xb6, 0xe7, 0xff, 0xff, 0xb8, 0x09, 0x00, 0x00, 0x89, 0xef, 0xff, 0xff, 0x2e, 0x01, 0x00, 0x00, 0x35, 0x1f, 0x00, 0x00, 0xf4, 0x10, 0x00, 0x00, 0xb3, 0x20, 0x00, 0x00, 0x7a, 0x28, 0x00, 0x00, 0x9b, 0xf9, 0xff, 0xff, 0x06, 0xf6, 0xff, 0xff, 0x04, 0x00, 0x00, 0x00, 0x90, 0x00, 0x00, 0x00,
  0xb3, 0xa9, 0x7b, 0x58, 0x81, 0x81, 0xeb, 0xaa, 0xa0, 0x18, 0x38, 0x99, 0xbf, 0x20, 0x06, 0x1f, 0x4b, 0x0d, 0x81, 0xfe, 0xca, 0x2a, 0x00, 0x71, 0x18, 0xd0, 0xf9, 0xab, 0xed, 0x9e, 0x1d, 0x16, 0x1c, 0x20, 0x21, 0x81, 0xc8, 0xf4, 0x76, 0x67, 0xa1, 0x81, 0x0b, 0x33, 0x07, 0x7f, 0x54, 0x9a, 0xdb, 0x98, 0x1f, 0x52, 0x50, 0x1a, 0xd6, 0x7f, 0x81, 0x31, 0xa1, 0x10,
  0x22, 0x04, 0x7f, 0xdb, 0x3a, 0x72, 0x59, 0x20, 0x5b, 0x6c, 0x41, 0xa2, 0xa2, 0xd7, 0xe3, 0x41, 0x67, 0xa6, 0x31, 0x4d, 0xfb, 0x33, 0xfc, 0xb9, 0xbb, 0xdf, 0x9f, 0xfc, 0x4f, 0x14, 0x2e, 0x81, 0xbe, 0x98, 0x63, 0x81, 0x0e, 0x7f, 0x20, 0x0a, 0x8f, 0x87, 0x6a, 0xd4, 0xee, 0x43, 0xa5, 0x88, 0x06, 0x31, 0xd3, 0x87, 0x52, 0x17, 0xf3, 0x9e, 0x16, 0x6f, 0x53, 0x61,
  0xa7, 0x89, 0x21, 0x5c, 0xe2, 0x29, 0x59, 0xdf, 0x81, 0x0b, 0x51, 0x0f, 0x1c, 0x00, 0x81, 0x86, 0xaf, 0x88, 0x81, 0x1c, 0x81, 0xbb, 0x19, 0x9c, 0xa2, 0xf6, 0xff, 0xff, 0x04, 0x00, 0x00, 0x00, 0x80, 0x00, 0x00, 0x00, 0x3b, 0x01, 0x00, 0x00, 0xa9, 0x09, 0x00, 0x00, 0x41, 0xfe, 0xff, 0xff, 0x86, 0x04, 0x00, 0x00, 0xc4, 0x0a, 0x00, 0x00, 0xcd, 0xfe, 0xff, 0xff,
  0x03, 0x0e, 0x00, 0x00, 0x83, 0x0f, 0x00, 0x00, 0xc6, 0xfb, 0xff, 0xff, 0x21, 0xfb, 0xff, 0xff, 0xed, 0xfd, 0xff, 0xff, 0x1c, 0xf0, 0xff, 0xff, 0x1a, 0x03, 0x00, 0x00, 0xa8, 0x02, 0x00, 0x00, 0x37, 0x03, 0x00, 0x00, 0x77, 0x01, 0x00, 0x00, 0x2b, 0xf4, 0xff, 0xff, 0x47, 0xea, 0xff, 0xff, 0x6b, 0xfd, 0xff, 0xff, 0xc5, 0xf9, 0xff, 0xff, 0x19, 0x04, 0x00, 0x00,
  0xc8, 0xf4, 0xff, 0xff, 0x3a, 0x03, 0x00, 0x00, 0x24, 0x0d, 0x00, 0x00, 0x35, 0xf8, 0xff, 0xff, 0xb6, 0xf8, 0xff, 0xff, 0xc3, 0xf7, 0xff, 0xff, 0xc6, 0xfb, 0xff, 0xff, 0x67, 0x00, 0x00, 0x00, 0x10, 0xfd, 0xff, 0xff, 0x91, 0x00, 0x00, 0x00, 0x6a, 0x01, 0x00, 0x00, 0x2e, 0xf7, 0xff, 0xff, 0x04, 0x00, 0x00, 0x00, 0x40, 0x00, 0x00, 0x00, 0x19, 0x10, 0x00, 0x00,
  0x45, 0x10, 0x00, 0x00, 0xf7, 0x06, 0x00, 0x00, 0xb2, 0xff, 0xff, 0xff, 0x94, 0xfb, 0xff, 0xff, 0x6e, 0x09, 0x00, 0x00, 0x65, 0xff, 0xff, 0xff, 0x44, 0xf5, 0xff, 0xff, 0xe2, 0xfd, 0xff, 0xff, 0xec, 0xf9, 0xff, 0xff, 0x1d, 0xfa, 0xff, 0xff, 0x37, 0x11, 0x00, 0x00, 0x05, 0x09, 0x00, 0x00, 0x7f, 0xf6, 0xff, 0xff, 0x4b, 0x04, 0x00, 0x00, 0x4e, 0xf7, 0xff, 0xff,
  0x7a, 0xf7, 0xff, 0xff, 0x04, 0x00, 0x00, 0x00, 0x90, 0x00, 0x00, 0x00, 0x93, 0x96, 0x9f, 0x32, 0xfa, 0xa7, 0xbd, 0x03, 0x1a, 0xf7, 0x32, 0x00, 0x45, 0x5b, 0xe6, 0x81, 0x7f, 0xca, 0x7f, 0x7f, 0x3a, 0x40, 0x29, 0xdc, 0x4b, 0x23, 0xf8, 0x1b, 0x7f, 0xa2, 0x20, 0x51, 0x30, 0x21, 0x45, 0xf3, 0xc5, 0xe8, 0x37, 0x0f, 0xe7, 0xb2, 0xc9, 0x81, 0x4e, 0xba, 0x35, 0xb5,
  0x9d, 0x7f, 0xf4, 0x68, 0x40, 0xea, 0x19, 0x81, 0x16, 0xdf, 0x0c, 0x42, 0x17, 0xef, 0x81, 0xb3, 0x1f, 0x9b, 0x21, 0x6f, 0x97, 0x44, 0xd2, 0xfa, 0x7f, 0x9d, 0x3a, 0x89, 0x24, 0x81, 0x89, 0xb4, 0x17, 0x5b, 0xdd, 0xf2, 0xaf, 0x81, 0x1b, 0xf4, 0x99, 0x81, 0x1a, 0xca, 0xdc, 0x2e, 0xcc, 0xd3, 0x19, 0x7d, 0xfc, 0x3f, 0xc3, 0xfd, 0x37, 0x15, 0x13, 0x25, 0x81, 0x93,
  0x4b, 0xaa, 0xdb, 0x0a, 0x04, 0x91, 0x2b, 0x7b, 0x53, 0xd0, 0x37, 0x47, 0x25, 0x89, 0xa8, 0xc8, 0x18, 0x85, 0x66, 0xd2, 0x1e, 0x7b, 0x24, 0xde, 0x81, 0x05, 0x81, 0x14, 0xbf, 0xf2, 0xfe, 0xdf, 0x47, 0xfd, 0xe4, 0xab, 0x16, 0xf8, 0xff, 0xff, 0x04, 0x00, 0x00, 0x00, 0x00, 0x02, 0x00, 0x00, 0x28, 0x55, 0x6d, 0x98, 0x14, 0x61, 0x81, 0x34, 0x38, 0xae, 0x29, 0xbf,
  0xa9, 0x66, 0x60, 0x5d, 0xe7, 0x14, 0x3b, 0xee, 0x5f, 0xb8, 0x7f, 0xdc, 0xb4, 0xaa, 0x54, 0xf9, 0x4e, 0xf4, 0x11, 0xf9, 0x25, 0x10, 0x18, 0x31, 0x68, 0xb6, 0xb9, 0x4d, 0x2d, 0xe8, 0xd7, 0xc5, 0x5d, 0x7f, 0x30, 0x29, 0x32, 0xb4, 0x79, 0xa9, 0xa5, 0x7f, 0xff, 0xfd, 0x50, 0xee, 0xd0, 0xde, 0x4c, 0x56, 0xbf, 0x19, 0x61, 0x07, 0x74, 0x29, 0x02, 0xf3, 0xdc, 0xd2,
  0xf3, 0xbf, 0x81, 0xd2, 0x0e, 0x86, 0xf8, 0xbb, 0x2d, 0x97, 0xf0, 0x7d, 0x5d, 0xab, 0xdd, 0xa6, 0xd6, 0x20, 0xf9, 0xa1, 0x7f, 0x20, 0x5f, 0xf5, 0x8a, 0x20, 0x4d, 0x1e, 0xeb, 0xec, 0x76, 0x7f, 0x82, 0x49, 0xe2, 0x06, 0xd4, 0x52, 0x35, 0x25, 0x50, 0x9f, 0x0c, 0x81, 0x1e, 0x1f, 0x18, 0x25, 0xa3, 0x94, 0xbb, 0x9a, 0xd2, 0x14, 0x71, 0xd7, 0x95, 0xa2, 0x44, 0xa2,
  0xc6, 0x02, 0x7f, 0x6c, 0x1e, 0x64, 0xcf, 0xc1, 0x0b, 0x4b, 0x14, 0xcc, 0x3c, 0x23, 0xcf, 0xec, 0x18, 0xa8, 0x7f, 0x3d, 0x1f, 0xf7, 0xbf, 0x33, 0xe7, 0x2b, 0xbb, 0x3a, 0x21, 0x5f, 0xe5, 0xe5, 0xe2, 0x99, 0x54, 0x04, 0xc6, 0x6d, 0x19, 0xf1, 0x7f, 0x39, 0x9d, 0x4c, 0xd1, 0x75, 0x06, 0x1f, 0x2a, 0x50, 0x16, 0x0c, 0xde, 0x30, 0xa8, 0x81, 0x3b, 0x28, 0xd8, 0x0e,
  0x0e, 0x44, 0xe4, 0xd7, 0x65, 0xb5, 0x7f, 0x16, 0xc5, 0xee, 0x10, 0x24, 0x2a, 0x09, 0xac, 0x20, 0xa1, 0x00, 0xd2, 0x1e, 0xf6, 0x10, 0x7f, 0xdc, 0x99, 0xa8, 0x4b, 0x41, 0x33, 0x44, 0xf2, 0x01, 0x4a, 0xca, 0xe0, 0xa7, 0x08, 0x81, 0xdb, 0x7c, 0x55, 0x99, 0xc8, 0xf4, 0xeb, 0xe3, 0x57, 0xae, 0x2f, 0x2f, 0x61, 0x11, 0xaa, 0x7c, 0x1f, 0xe1, 0x5e, 0x9b, 0x81, 0x2a,
  0x2c, 0xbd, 0x57, 0x56, 0x99, 0x2e, 0x22, 0x2c, 0x89, 0x53, 0xda, 0x41, 0x7f, 0x8a, 0xa9, 0x51, 0xd4, 0xa4, 0x87, 0x7d, 0x33, 0x4b, 0x23, 0x1a, 0xef, 0x72, 0xe5, 0xcb, 0x04, 0x48, 0x83, 0x6d, 0xb2, 0x81, 0x11, 0x8e, 0x27, 0x70, 0x14, 0xcd, 0x81, 0x05, 0xbc, 0x70, 0xde, 0x94, 0x20, 0xab, 0xe5, 0xb4, 0x96, 0x42, 0xcf, 0x01, 0xaa, 0x0d, 0x4a, 0xda, 0xec, 0x08,
  0x9b, 0x81, 0xa4, 0xe5, 0x95, 0x39, 0xec, 0x66, 0x46, 0xf6, 0xc8, 0xda, 0x4b, 0xa2, 0x7f, 0x28, 0xa3, 0x2d, 0xca, 0x0f, 0xf8, 0x33, 0xa3, 0x5d, 0x57, 0x73, 0x52, 0x6c, 0xa7, 0xef, 0xcf, 0x56, 0x43, 0xf8, 0x81, 0x9b, 0xd7, 0x9d, 0xd8, 0xb8, 0x7f, 0xcf, 0x23, 0xbe, 0xf7, 0x56, 0xbd, 0xf3, 0x36, 0x61, 0x94, 0xbb, 0x5e, 0x10, 0xad, 0x21, 0xe1, 0x12, 0x70, 0xaf,
  0x3b, 0x56, 0x1e, 0x58, 0x56, 0xe8, 0x66, 0x24, 0xc5, 0x81, 0xc7, 0x01, 0x19, 0xb0, 0x5f, 0x96, 0x81, 0x1f, 0x05, 0x3b, 0x68, 0x0d, 0xf5, 0x61, 0xe6, 0xbf, 0x95, 0xc0, 0x4e, 0x35, 0xdd, 0x3b, 0x3c, 0x32, 0xaf, 0x7f, 0xab, 0x09, 0x63, 0xef, 0x9a, 0x6f, 0xba, 0x01, 0xd8, 0x25, 0xec, 0x4f, 0x2b, 0xbc, 0x67, 0xfc, 0x01, 0x81, 0x0d, 0xcd, 0x38, 0x03, 0xbc, 0x35,
  0x7f, 0xb1, 0xbf, 0x00, 0xa1, 0x1e, 0xf1, 0xaa, 0xe9, 0x2c, 0x90, 0xaf, 0xdc, 0xf0, 0x04, 0xe0, 0x52, 0x36, 0x9b, 0xbd, 0x5e, 0x82, 0x5b, 0xd9, 0x81, 0xb3, 0x65, 0xcb, 0x2e, 0xf3, 0xc5, 0xe5, 0xb6, 0xb4, 0x15, 0x65, 0xab, 0x72, 0xc8, 0x97, 0x81, 0x0f, 0xa4, 0xca, 0x5a, 0xcc, 0x02, 0xcd, 0x7f, 0xb1, 0xd7, 0x98, 0xf3, 0xe1, 0xf8, 0xa8, 0x69, 0xf2, 0x96, 0x93,
  0x41, 0x91, 0xbc, 0x83, 0xfb, 0xe9, 0xd8, 0xc7, 0x2c, 0x1c, 0x3f, 0x07, 0xa5, 0x57, 0x7f, 0xd6, 0x4a, 0x34, 0xa0, 0xf6, 0x22, 0xfa, 0xff, 0xff, 0x04, 0x00, 0x00, 0x00, 0x00, 0x02, 0x00, 0x00, 0xd0, 0x5a, 0xa8, 0x65, 0x46, 0xb4, 0x20, 0x81, 0x81, 0xec, 0x50, 0xf6, 0x47, 0xd0, 0xfe, 0xd9, 0x03, 0xdf, 0xb6, 0xd0, 0x81, 0xf5, 0x19, 0x32, 0x11, 0x36, 0x2c, 0xe3,
  0xa2, 0x6a, 0xde, 0x3f, 0xb7, 0xb5, 0x06, 0x67, 0x06, 0xe0, 0x6d, 0x03, 0x60, 0x7f, 0xc6, 0xc6, 0x34, 0xbd, 0x01, 0x41, 0x12, 0x37, 0x5a, 0x57, 0xaf, 0xfd, 0xfe, 0xb1, 0x9f, 0x81, 0x69, 0xc6, 0x47, 0xfc, 0xf8, 0x93, 0x82, 0x06, 0x17, 0x41, 0x61, 0x81, 0x8d, 0xb6, 0xde, 0xe3, 0x0d, 0xf7, 0xd0, 0x61, 0x17, 0xd0, 0xbc, 0x00, 0x28, 0x34, 0x95, 0x31, 0x62, 0x63,
  0x7f, 0xf3, 0x59, 0x94, 0xdc, 0xf0, 0xa2, 0x08, 0x0b, 0x9b, 0xdf, 0xbc, 0xe9, 0xcb, 0x08, 0x11, 0x7f, 0x01, 0xed, 0xaf, 0x1b, 0xbc, 0x21, 0x00, 0xd1, 0x81, 0x43, 0xcd, 0xc0, 0x72, 0x23, 0xb8, 0xa2, 0x1e, 0x0b, 0xbd, 0x9e, 0xdc, 0xf8, 0x61, 0x42, 0x9b, 0x05, 0xcb, 0xad, 0x36, 0x11, 0x7f, 0x69, 0x39, 0xe5, 0x66, 0x6e, 0xab, 0xa1, 0xf2, 0xd8, 0x24, 0xe9, 0xeb,
  0xe5, 0xf5, 0xba, 0x7f, 0x6b, 0x56, 0x0a, 0x38, 0x18, 0xca, 0x47, 0xac, 0xff, 0xa2, 0x41, 0x2d, 0xce, 0x2d, 0x0d, 0x2e, 0x50, 0x68, 0xdb, 0xe6, 0x7f, 0xab, 0xdf, 0x1c, 0xf7, 0xc5, 0x55, 0xd6, 0x7f, 0xf8, 0x91, 0x24, 0x40, 0xad, 0x3b, 0x27, 0x0b, 0xa6, 0x72, 0x1b, 0x1a, 0xd7, 0xe8, 0xd8, 0xca, 0xd3, 0x2a, 0x18, 0x08, 0xfd, 0x10, 0x20, 0x7f, 0xf6, 0xdb, 0xa7,
  0x2e, 0xed, 0xbf, 0x8f, 0xbb, 0xa0, 0xa0, 0x6d, 0x7f, 0x25, 0x2d, 0x39, 0x29, 0xd8, 0x51, 0xb1, 0x33, 0xba, 0x93, 0x3f, 0xf5, 0xa7, 0x0c, 0x3c, 0x7f, 0xac, 0x2d, 0xc7, 0x39, 0xac, 0xf5, 0x43, 0x10, 0xcc, 0xb6, 0x52, 0xdd, 0x9c, 0xa5, 0x28, 0xa5, 0xe6, 0x7f, 0x6b, 0x4d, 0xb9, 0xc5, 0x18, 0xa3, 0x0f, 0x02, 0x62, 0x20, 0xa0, 0x58, 0xdc, 0x8a, 0xd3, 0x32, 0x7f,
  0xe7, 0x71, 0xf5, 0xef, 0x5c, 0x28, 0x13, 0x17, 0x3e, 0x4a, 0x81, 0x05, 0x50, 0xba, 0x3c, 0x60, 0x45, 0xeb, 0xfb, 0xeb, 0xdb, 0x5d, 0x77, 0xfa, 0x7e, 0x81, 0xbd, 0xe7, 0x59, 0xeb, 0xfc, 0xaf, 0xed, 0xea, 0xfe, 0xa8, 0xb4, 0xc4, 0xcb, 0x27, 0x08, 0x18, 0xc7, 0xfa, 0x10, 0x36, 0xfe, 0x42, 0x4c, 0x7f, 0x51, 0xfa, 0xcb, 0xfe, 0xcb, 0xbc, 0xa2, 0xba, 0x44, 0xe3,
  0x7f, 0xcb, 0x0c, 0x39, 0x49, 0xc0, 0x56, 0x0f, 0xca, 0x5c, 0x04, 0x0b, 0x3d, 0x81, 0x85, 0x9e, 0xb1, 0x10, 0x3b, 0x55, 0x26, 0x39, 0x6e, 0x58, 0xb1, 0x81, 0x5d, 0xd5, 0x73, 0xe7, 0xa6, 0xe8, 0xb3, 0x2d, 0xa9, 0x10, 0xdc, 0x57, 0x5e, 0x15, 0x02, 0xf7, 0x08, 0xae, 0x1f, 0xce, 0xad, 0xff, 0x6e, 0x86, 0x4f, 0x9f, 0x81, 0xf2, 0x92, 0x1c, 0xc9, 0x32, 0x7f, 0xa8,
  0x55, 0x2f, 0x0d, 0x25, 0xd4, 0xf1, 0xf7, 0xa2, 0x3c, 0xeb, 0xc7, 0x28, 0x26, 0xc0, 0x36, 0x6a, 0x42, 0xc2, 0xc8, 0x57, 0x6f, 0x7f, 0x8e, 0xed, 0x2f, 0xed, 0x20, 0xe3, 0x5c, 0xb7, 0xec, 0x0c, 0x1e, 0xfa, 0x1b, 0x3f, 0x00, 0x7d, 0x94, 0x12, 0x7f, 0x13, 0xbb, 0x3b, 0xef, 0x7f, 0xae, 0xfa, 0xea, 0xb1, 0xec, 0xa3, 0xfe, 0x21, 0x5c, 0x2b, 0xf2, 0x01, 0xe7, 0x61,
  0x55, 0x95, 0xdb, 0xdf, 0x01, 0xd8, 0xc9, 0x5b, 0x5d, 0x4b, 0xde, 0x3c, 0x7f, 0xc3, 0xcf, 0xc1, 0xf6, 0x03, 0x1a, 0x46, 0xd3, 0x9d, 0x96, 0x9c, 0x14, 0x1e, 0x09, 0x70, 0x87, 0x61, 0x42, 0x7f, 0x81, 0x45, 0x28, 0xed, 0x12, 0x30, 0xa8, 0x00, 0x39, 0xac, 0xdf, 0x62, 0xca, 0xf6, 0x4d, 0xbb, 0xc4, 0x33, 0xd2, 0xb6, 0xce, 0xc5, 0xbe, 0x23, 0x4f, 0x7f, 0x0b, 0x1b,
  0x58, 0x1a, 0x3b, 0xb5, 0x2e, 0xfc, 0xff, 0xff, 0x04, 0x00, 0x00, 0x00, 0x00, 0x01, 0x00, 0x00, 0x54, 0x81, 0xf5, 0x1e, 0xe0, 0xa1, 0xca, 0xb2, 0x16, 0x95, 0x98, 0xf5, 0xe0, 0x22, 0xd7, 0x5c, 0x5c, 0x27, 0xea, 0x48, 0xaa, 0xde, 0x83, 0x81, 0xaf, 0xe6, 0xa1, 0x14, 0xa1, 0x50, 0xc3, 0xc6, 0x67, 0x6c, 0x97, 0x39, 0x5f, 0x32, 0x39, 0x99, 0x81, 0x8b, 0x6a, 0xc7,
  0xb4, 0x53, 0x91, 0xba, 0x3f, 0xc7, 0xf9, 0xb4, 0xbe, 0x02, 0x78, 0x2d, 0xf0, 0x69, 0xbd, 0x99, 0x94, 0x68, 0xf5, 0x7f, 0x94, 0x6c, 0x62, 0x6b, 0x7f, 0x36, 0x0d, 0xe7, 0x81, 0xd1, 0x44, 0xf4, 0xe4, 0x27, 0xf5, 0xc8, 0x81, 0xb1, 0x37, 0x72, 0x49, 0xba, 0xc2, 0xf5, 0x2b, 0xcc, 0xb5, 0xe2, 0x96, 0x36, 0x15, 0x06, 0xaf, 0x9d, 0x5b, 0x81, 0xd2, 0x62, 0x47, 0x18,
  0x01, 0x9c, 0x64, 0x0f, 0x4c, 0x54, 0xd9, 0xe5, 0x64, 0xe4, 0x81, 0xc6, 0x56, 0x5a, 0xda, 0x0f, 0x51, 0xd4, 0x5f, 0xd6, 0x35, 0x4c, 0x41, 0x36, 0xb1, 0x22, 0x4a, 0xf5, 0xa7, 0xde, 0x55, 0x06, 0x2b, 0x91, 0xff, 0x90, 0x5f, 0xae, 0x7f, 0x58, 0x20, 0xe6, 0xcc, 0x04, 0xd4, 0xc3, 0x52, 0xa6, 0x4b, 0x0d, 0x75, 0xe4, 0x02, 0xe1, 0x6f, 0x7f, 0x0d, 0x7f, 0x05, 0x1e,
  0xf6, 0xa7, 0xe5, 0x05, 0x31, 0x52, 0xf2, 0xd9, 0x23, 0xcb, 0x31, 0x02, 0x81, 0xdf, 0x34, 0xdb, 0x49, 0x2b, 0xe9, 0x58, 0xc6, 0xed, 0x8f, 0xe1, 0x97, 0x9f, 0x81, 0xdc, 0xb9, 0x81, 0x4e, 0x98, 0xb6, 0xf7, 0xe8, 0xed, 0x60, 0x8b, 0xb6, 0xe4, 0x59, 0xf6, 0x5d, 0x24, 0x5e, 0xc7, 0x59, 0x22, 0x2b, 0x10, 0x33, 0x07, 0x45, 0xa3, 0xb8, 0x01, 0x5a, 0x81, 0x78, 0x11,
  0xdb, 0xd1, 0xb3, 0xbb, 0x81, 0x43, 0xfc, 0xfb, 0x43, 0x8c, 0xb8, 0x55, 0x33, 0x6a, 0x37, 0xc6, 0x52, 0x76, 0x27, 0xc6, 0x6e, 0xc8, 0x2b, 0x2b, 0x38, 0xd5, 0x24, 0xb5, 0x81, 0x7d, 0x4f, 0xb7, 0x3a, 0xfd, 0xff, 0xff, 0x04, 0x00, 0x00, 0x00, 0x90, 0x00, 0x00, 0x00, 0x81, 0xaf, 0xfb, 0xef, 0x49, 0x8e, 0xfa, 0x30, 0x1b, 0xf3, 0x13, 0xf1, 0xb8, 0xea, 0x36, 0xf0,
  0x47, 0x81, 0x34, 0xf4, 0xf8, 0x95, 0x4e, 0x81, 0xcf, 0x26, 0xb2, 0x82, 0x0f, 0xf4, 0xfd, 0xf6, 0xbc, 0x81, 0x2f, 0x50, 0x03, 0xe5, 0x42, 0x1a, 0xe2, 0x71, 0x38, 0xbd, 0x7f, 0x7f, 0x60, 0xfe, 0xfc, 0x51, 0x97, 0x5b, 0xc9, 0x4f, 0xf4, 0x99, 0xf6, 0x8c, 0xb8, 0xf9, 0x10, 0xef, 0x7f, 0x9c, 0x61, 0x81, 0x84, 0x19, 0x42, 0x71, 0x21, 0x0d, 0x16, 0x5c, 0x81, 0x98,
  0xbd, 0xc0, 0xdd, 0x94, 0x3b, 0x2b, 0xe5, 0x30, 0xa5, 0x14, 0x81, 0xf3, 0x3e, 0xea, 0x0e, 0xeb, 0xf5, 0x0a, 0xb6, 0x4a, 0x1f, 0x81, 0x63, 0x8b, 0x22, 0x17, 0x50, 0x81, 0x4e, 0x1c, 0xde, 0x28, 0x1b, 0x11, 0x03, 0x08, 0xd0, 0x3b, 0x81, 0x36, 0xbe, 0x32, 0x68, 0xe9, 0x39, 0xc2, 0x4c, 0xcd, 0x81, 0x1c, 0x62, 0xe0, 0x81, 0x8e, 0x55, 0xb6, 0x81, 0x89, 0x95, 0x7f,
  0x5a, 0xa0, 0xe5, 0x65, 0x8c, 0x2d, 0xb6, 0x0a, 0xd6, 0xfd, 0xff, 0xff, 0x04, 0x00, 0x00, 0x00, 0x40, 0x00, 0x00, 0x00, 0x2e, 0xb7, 0x14, 0xe3, 0xe5, 0xfa, 0x83, 0xe1, 0xa8, 0x35, 0xf8, 0x69, 0xe3, 0xff, 0xc4, 0x30, 0x6d, 0x2b, 0x3b, 0xfa, 0x81, 0x3a, 0x5a, 0x14, 0x57, 0xdd, 0xfd, 0x6a, 0xc2, 0x63, 0x4d, 0x1c, 0xc6, 0x3b, 0x63, 0xbd, 0xb8, 0x2a, 0x10, 0xdc,
  0x0e, 0x69, 0x4f, 0x91, 0x00, 0x2c, 0x06, 0xf3, 0x2f, 0x8e, 0xad, 0x79, 0x57, 0xa5, 0x9c, 0xf8, 0x95, 0x07, 0x0c, 0x95, 0x63, 0xae, 0xf9, 0x36, 0x22, 0xfe, 0xff, 0xff, 0x04, 0x00, 0x00, 0x00, 0x40, 0x00, 0x00, 0x00, 0xa5, 0xf6, 0xff, 0xff, 0xb9, 0xf8, 0xff, 0xff, 0x01, 0xf2, 0xff, 0xff, 0xd5, 0xfe, 0xff, 0xff, 0x2a, 0x14, 0x00, 0x00, 0x94, 0xfb, 0xff, 0xff,
  0x3a, 0xfe, 0xff, 0xff, 0x13, 0xf9, 0xff, 0xff, 0x65, 0x13, 0x00, 0x00, 0xf4, 0x0a, 0x00, 0x00, 0x20, 0x0a, 0x00, 0x00, 0x5b, 0x0d, 0x00, 0x00, 0xbd, 0x01, 0x00, 0x00, 0xce, 0x02, 0x00, 0x00, 0x28, 0xee, 0xff, 0xff, 0x67, 0x0b, 0x00, 0x00, 0x6e, 0xfe, 0xff, 0xff, 0x04, 0x00, 0x00, 0x00, 0x40, 0x00, 0x00, 0x00, 0xa6, 0xfc, 0xff, 0xff, 0x0b, 0xfc, 0xff, 0xff,
  0x7c, 0xfc, 0xff, 0xff, 0x50, 0xf0, 0xff, 0xff, 0x89, 0x08, 0x00, 0x00, 0xa8, 0x05, 0x00, 0x00, 0x34, 0xff, 0xff, 0xff, 0xab, 0x02, 0x00, 0x00, 0x3b, 0xfc, 0xff, 0xff, 0x2a, 0x0b, 0x00, 0x00, 0xea, 0x02, 0x00, 0x00, 0xe3, 0x0c, 0x00, 0x00, 0xdd, 0xf6, 0xff, 0xff, 0xb1, 0x0a, 0x00, 0x00, 0x24, 0x07, 0x00, 0x00, 0x3d, 0x0a, 0x00, 0x00, 0xba, 0xfe, 0xff, 0xff,
  0x04, 0x00, 0x00, 0x00, 0x40, 0x00, 0x00, 0x00, 0x19, 0x0c, 0x00, 0x00, 0x19, 0x07, 0x00, 0x00, 0xd1, 0x09, 0x00, 0x00, 0x74, 0x0a, 0x00, 0x00, 0x64, 0xf5, 0xff, 0xff, 0x5e, 0xf2, 0xff, 0xff, 0xe2, 0x0a, 0x00, 0x00, 0x78, 0x00, 0x00, 0x00, 0xee, 0x0d, 0x00, 0x00, 0x05, 0x06, 0x00, 0x00, 0xc2, 0x01, 0x00, 0x00, 0x5f, 0x01, 0x00, 0x00, 0x42, 0x02, 0x00, 0x00,
  0xfa, 0xfc, 0xff, 0xff, 0x15, 0x18, 0x00, 0x00, 0x53, 0xfa, 0xff, 0xff, 0x06, 0xff, 0xff, 0xff, 0x04, 0x00, 0x00, 0x00, 0x01, 0x00, 0x00, 0x00, 0x81, 0x00, 0x00, 0x00, 0x16, 0xff, 0xff, 0xff, 0x04, 0x00, 0x00, 0x00, 0x01, 0x00, 0x00, 0x00, 0x7f, 0x00, 0x00, 0x00, 0x26, 0xff, 0xff, 0xff, 0x04, 0x00, 0x00, 0x00, 0x08, 0x00, 0x00, 0x00, 0x01, 0x00, 0x00, 0x00,
  0x02, 0x00, 0x00, 0x00, 0x3a, 0xff, 0xff, 0xff, 0x04, 0x00, 0x00, 0x00, 0x08, 0x00, 0x00, 0x00, 0x7d, 0xff, 0xff, 0xff, 0x83, 0x00, 0x00, 0x00, 0xa0, 0xd8, 0xff, 0xff, 0xa4, 0xd8, 0xff, 0xff, 0x0f, 0x00, 0x00, 0x00, 0x4d, 0x4c, 0x49, 0x52, 0x20, 0x43, 0x6f, 0x6e, 0x76, 0x65, 0x72, 0x74, 0x65, 0x64, 0x2e, 0x00, 0x01, 0x00, 0x00, 0x00, 0x14, 0x00, 0x00, 0x00,
  0x00, 0x00, 0x0e, 0x00, 0x18, 0x00, 0x14, 0x00, 0x10, 0x00, 0x0c, 0x00, 0x08, 0x00, 0x04, 0x00, 0x0e, 0x00, 0x00, 0x00, 0x14, 0x00, 0x00, 0x00, 0x1c, 0x00, 0x00, 0x00, 0xac, 0x03, 0x00, 0x00, 0xb0, 0x03, 0x00, 0x00, 0xb4, 0x03, 0x00, 0x00, 0x04, 0x00, 0x00, 0x00, 0x6d, 0x61, 0x69, 0x6e, 0x00, 0x00, 0x00, 0x00, 0x0f, 0x00, 0x00, 0x00, 0x48, 0x03, 0x00, 0x00,
  0xe0, 0x02, 0x00, 0x00, 0x88, 0x02, 0x00, 0x00, 0x48, 0x02, 0x00, 0x00, 0x0c, 0x02, 0x00, 0x00, 0xc4, 0x01, 0x00, 0x00, 0x88, 0x01, 0x00, 0x00, 0x50, 0x01, 0x00, 0x00, 0x1c, 0x01, 0x00, 0x00, 0xe4, 0x00, 0x00, 0x00, 0xc0, 0x00, 0x00, 0x00, 0x8c, 0x00, 0x00, 0x00, 0x68, 0x00, 0x00, 0x00, 0x40, 0x00, 0x00, 0x00, 0x04, 0x00, 0x00, 0x00, 0x66, 0xfd, 0xff, 0xff,
  0x1c, 0x00, 0x00, 0x00, 0x00, 0x00, 0x00, 0x09, 0x1c, 0x00, 0x00, 0x00, 0x20, 0x00, 0x00, 0x00, 0x07, 0x00, 0x00, 0x00, 0x00, 0x00, 0x06, 0x00, 0x08, 0x00, 0x04, 0x00, 0x06, 0x00, 0x00, 0x00, 0x00, 0x00, 0x80, 0x3f, 0x01, 0x00, 0x00, 0x00, 0x1e, 0x00, 0x00, 0x00, 0x01, 0x00, 0x00, 0x00, 0x1d, 0x00, 0x00, 0x00, 0x96, 0xff, 0xff, 0xff, 0x0c, 0x00, 0x00, 0x00,
  0x10, 0x00, 0x00, 0x00, 0x06, 0x00, 0x00, 0x00, 0x01, 0x00, 0x00, 0x00, 0x1d, 0x00, 0x00, 0x00, 0x02, 0x00, 0x00, 0x00, 0x1c, 0x00, 0x00, 0x00, 0x1f, 0x00, 0x00, 0x00, 0xba, 0xff, 0xff, 0xff, 0x0c, 0x00, 0x00, 0x00, 0x10, 0x00, 0x00, 0x00, 0x08, 0x00, 0x00, 0x00, 0x01, 0x00, 0x00, 0x00, 0x1f, 0x00, 0x00, 0x00, 0x01, 0x00, 0x00, 0x00, 0x04, 0x00, 0x00, 0x00,
  0xda, 0xff, 0xff, 0xff, 0x0c, 0x00, 0x00, 0x00, 0x10, 0x00, 0x00, 0x00, 0x05, 0x00, 0x00, 0x00, 0x01, 0x00, 0x00, 0x00, 0x1c, 0x00, 0x00, 0x00, 0x02, 0x00, 0x00, 0x00, 0x1b, 0x00, 0x00, 0x00, 0x20, 0x00, 0x00, 0x00, 0x00, 0x00, 0x0a, 0x00, 0x10, 0x00, 0x0c, 0x00, 0x08, 0x00, 0x04, 0x00, 0x0a, 0x00, 0x00, 0x00, 0x0c, 0x00, 0x00, 0x00, 0x10, 0x00, 0x00, 0x00,
  0x08, 0x00, 0x00, 0x00, 0x01, 0x00, 0x00, 0x00, 0x20, 0x00, 0x00, 0x00, 0x01, 0x00, 0x00, 0x00, 0x03, 0x00, 0x00, 0x00, 0x32, 0xfe, 0xff, 0xff, 0x14, 0x00, 0x00, 0x00, 0x00, 0x00, 0x00, 0x08, 0x10, 0x00, 0x00, 0x00, 0x14, 0x00, 0x00, 0x00, 0x04, 0x00, 0x00, 0x00, 0x1c, 0xda, 0xff, 0xff, 0x01, 0x00, 0x00, 0x00, 0x1b, 0x00, 0x00, 0x00, 0x03, 0x00, 0x00, 0x00,
  0x1a, 0x00, 0x00, 0x00, 0x08, 0x00, 0x00, 0x00, 0x01, 0x00, 0x00, 0x00, 0x66, 0xfe, 0xff, 0xff, 0x14, 0x00, 0x00, 0x00, 0x00, 0x00, 0x00, 0x1b, 0x10, 0x00, 0x00, 0x00, 0x14, 0x00, 0x00, 0x00, 0x03, 0x00, 0x00, 0x00, 0x50, 0xda, 0xff, 0xff, 0x01, 0x00, 0x00, 0x00, 0x1a, 0x00, 0x00, 0x00, 0x02, 0x00, 0x00, 0x00, 0x19, 0x00, 0x00, 0x00, 0x02, 0x00, 0x00, 0x00,
  0x96, 0xfe, 0xff, 0xff, 0x14, 0x00, 0x00, 0x00, 0x00, 0x00, 0x00, 0x0b, 0x14, 0x00, 0x00, 0x00, 0x18, 0x00, 0x00, 0x00, 0x02, 0x00, 0x00, 0x00, 0x16, 0xff, 0xff, 0xff, 0x00, 0x00, 0x00, 0x01, 0x01, 0x00, 0x00, 0x00, 0x19, 0x00, 0x00, 0x00, 0x02, 0x00, 0x00, 0x00, 0x16, 0x00, 0x00, 0x00, 0x18, 0x00, 0x00, 0x00, 0x66, 0xfe, 0xff, 0xff, 0x10, 0x00, 0x00, 0x00,
  0x00, 0x00, 0x00, 0x01, 0x14, 0x00, 0x00, 0x00, 0x18, 0x00, 0x00, 0x00, 0x0e, 0xff, 0xff, 0xff, 0x01, 0x00, 0x00, 0x00, 0x01, 0x00, 0x00, 0x00, 0x01, 0x00, 0x00, 0x00, 0x18, 0x00, 0x00, 0x00, 0x03, 0x00, 0x00, 0x00, 0x17, 0x00, 0x00, 0x00, 0x0c, 0x00, 0x00, 0x00, 0x11, 0x00, 0x00, 0x00, 0x02, 0xff, 0xff, 0xff, 0x14, 0x00, 0x00, 0x00, 0x00, 0x00, 0x00, 0x02,
  0x20, 0x00, 0x00, 0x00, 0x24, 0x00, 0x00, 0x00, 0x01, 0x00, 0x00, 0x00, 0xf2, 0xfe, 0xff, 0xff, 0x00, 0x00, 0x00, 0x01, 0x01, 0x00, 0x00, 0x00, 0x02, 0x00, 0x00, 0x00, 0x02, 0x00, 0x00, 0x00, 0x01, 0x00, 0x00, 0x00, 0x17, 0x00, 0x00, 0x00, 0x03, 0x00, 0x00, 0x00, 0x15, 0x00, 0x00, 0x00, 0x10, 0x00, 0x00, 0x00, 0x07, 0x00, 0x00, 0x00, 0xe2, 0xfe, 0xff, 0xff,
  0x10, 0x00, 0x00, 0x00, 0x00, 0x00, 0x00, 0x01, 0x14, 0x00, 0x00, 0x00, 0x18, 0x00, 0x00, 0x00, 0x8a, 0xff, 0xff, 0xff, 0x02, 0x00, 0x00, 0x00, 0x02, 0x00, 0x00, 0x00, 0x01, 0x00, 0x00, 0x00, 0x16, 0x00, 0x00, 0x00, 0x03, 0x00, 0x00, 0x00, 0x15, 0x00, 0x00, 0x00, 0x0b, 0x00, 0x00, 0x00, 0x0f, 0x00, 0x00, 0x00, 0x7e, 0xff, 0xff, 0xff, 0x1c, 0x00, 0x00, 0x00,
  0x00, 0x00, 0x00, 0x0b, 0x1c, 0x00, 0x00, 0x00, 0x20, 0x00, 0x00, 0x00, 0x02, 0x00, 0x00, 0x00, 0x00, 0x00, 0x06, 0x00, 0x08, 0x00, 0x07, 0x00, 0x06, 0x00, 0x00, 0x00, 0x00, 0x00, 0x00, 0x01, 0x01, 0x00, 0x00, 0x00, 0x15, 0x00, 0x00, 0x00, 0x02, 0x00, 0x00, 0x00, 0x12, 0x00, 0x00, 0x00, 0x14, 0x00, 0x00, 0x00, 0x56, 0xff, 0xff, 0xff, 0x1c, 0x00, 0x00, 0x00,
  0x00, 0x00, 0x00, 0x01, 0x20, 0x00, 0x00, 0x00, 0x24, 0x00, 0x00, 0x00, 0x00, 0x00, 0x0a, 0x00, 0x0c, 0x00, 0x00, 0x00, 0x08, 0x00, 0x04, 0x00, 0x0a, 0x00, 0x00, 0x00, 0x01, 0x00, 0x00, 0x00, 0x01, 0x00, 0x00, 0x00, 0x01, 0x00, 0x00, 0x00, 0x14, 0x00, 0x00, 0x00, 0x03, 0x00, 0x00, 0x00, 0x13, 0x00, 0x00, 0x00, 0x0a, 0x00, 0x00, 0x00, 0x0e, 0x00, 0x00, 0x00,
  0x00, 0x00, 0x0e, 0x00, 0x1a, 0x00, 0x14, 0x00, 0x10, 0x00, 0x0c, 0x00, 0x0b, 0x00, 0x04, 0x00, 0x0e, 0x00, 0x00, 0x00, 0x24, 0x00, 0x00, 0x00, 0x00, 0x00, 0x00, 0x02, 0x30, 0x00, 0x00, 0x00, 0x34, 0x00, 0x00, 0x00, 0x01, 0x00, 0x00, 0x00, 0x00, 0x00, 0x0e, 0x00, 0x14, 0x00, 0x00, 0x00, 0x10, 0x00, 0x0c, 0x00, 0x08, 0x00, 0x07, 0x00, 0x0e, 0x00, 0x00, 0x00,
  0x00, 0x00, 0x00, 0x01, 0x01, 0x00, 0x00, 0x00, 0x01, 0x00, 0x00, 0x00, 0x01, 0x00, 0x00, 0x00, 0x01, 0x00, 0x00, 0x00, 0x13, 0x00, 0x00, 0x00, 0x03, 0x00, 0x00, 0x00, 0x12, 0x00, 0x00, 0x00, 0x0d, 0x00, 0x00, 0x00, 0x06, 0x00, 0x00, 0x00, 0x00, 0x00, 0x0e, 0x00, 0x14, 0x00, 0x00, 0x00, 0x10, 0x00, 0x0c, 0x00, 0x0b, 0x00, 0x04, 0x00, 0x0e, 0x00, 0x00, 0x00,
  0x1c, 0x00, 0x00, 0x00, 0x00, 0x00, 0x00, 0x01, 0x24, 0x00, 0x00, 0x00, 0x28, 0x00, 0x00, 0x00, 0x0c, 0x00, 0x10, 0x00, 0x00, 0x00, 0x0c, 0x00, 0x08, 0x00, 0x07, 0x00, 0x0c, 0x00, 0x00, 0x00, 0x00, 0x00, 0x00, 0x01, 0x01, 0x00, 0x00, 0x00, 0x01, 0x00, 0x00, 0x00, 0x01, 0x00, 0x00, 0x00, 0x12, 0x00, 0x00, 0x00, 0x03, 0x00, 0x00, 0x00, 0x00, 0x00, 0x00, 0x00,
  0x09, 0x00, 0x00, 0x00, 0x05, 0x00, 0x00, 0x00, 0x01, 0x00, 0x00, 0x00, 0x1e, 0x00, 0x00, 0x00, 0x01, 0x00, 0x00, 0x00, 0x00, 0x00, 0x00, 0x00, 0x21, 0x00, 0x00, 0x00, 0x58, 0x24, 0x00, 0x00, 0xbc, 0x23, 0x00, 0x00, 0x40, 0x23, 0x00, 0x00, 0xd4, 0x22, 0x00, 0x00, 0x68, 0x22, 0x00, 0x00, 0x38, 0x21, 0x00, 0x00, 0x0c, 0x20, 0x00, 0x00, 0xe0, 0x1e, 0x00, 0x00,
  0x64, 0x1e, 0x00, 0x00, 0xb0, 0x1c, 0x00, 0x00, 0xfc, 0x1a, 0x00, 0x00, 0x08, 0x18, 0x00, 0x00, 0x14, 0x15, 0x00, 0x00, 0xe8, 0x12, 0x00, 0x00, 0x7c, 0x11, 0x00, 0x00, 0x58, 0x0f, 0x00, 0x00, 0x60, 0x0d, 0x00, 0x00, 0x58, 0x0b, 0x00, 0x00, 0x1c, 0x0a, 0x00, 0x00, 0xd8, 0x08, 0x00, 0x00, 0xe4, 0x07, 0x00, 0x00, 0x30, 0x07, 0x00, 0x00, 0x44, 0x06, 0x00, 0x00,
  0x50, 0x05, 0x00, 0x00, 0x7c, 0x04, 0x00, 0x00, 0xc8, 0x03, 0x00, 0x00, 0x2c, 0x03, 0x00, 0x00, 0x88, 0x02, 0x00, 0x00, 0xec, 0x01, 0x00, 0x00, 0x58, 0x01, 0x00, 0x00, 0xec, 0x00, 0x00, 0x00, 0x80, 0x00, 0x00, 0x00, 0x04, 0x00, 0x00, 0x00, 0x96, 0xff, 0xff, 0xff, 0x0c, 0x00, 0x00, 0x00, 0x28, 0x00, 0x00, 0x00, 0x00, 0x00, 0x00, 0x09, 0xbc, 0xdc, 0xff, 0xff,
  0x08, 0x00, 0x00, 0x00, 0x10, 0x00, 0x00, 0x00, 0x01, 0x00, 0x00, 0x00, 0xdd, 0xff, 0xff, 0xff, 0xff, 0xff, 0xff, 0xff, 0x01, 0x00, 0x00, 0x00, 0x06, 0xba, 0x0d, 0x3d, 0x34, 0x00, 0x00, 0x00, 0x6d, 0x6f, 0x64, 0x65, 0x6c, 0x5f, 0x33, 0x2f, 0x6c, 0x61, 0x6d, 0x62, 0x64, 0x61, 0x5f, 0x32, 0x2f, 0x63, 0x6c, 0x69, 0x70, 0x5f, 0x62, 0x79, 0x5f, 0x76, 0x61, 0x6c,
  0x75, 0x65, 0x2f, 0x4d, 0x69, 0x6e, 0x69, 0x6d, 0x75, 0x6d, 0x2f, 0x79, 0x5f, 0x72, 0x65, 0x71, 0x75, 0x61, 0x6e, 0x74, 0x69, 0x7a, 0x65, 0x64, 0x00, 0x00, 0x0e, 0x00, 0x10, 0x00, 0x00, 0x00, 0x0f, 0x00, 0x00, 0x00, 0x08, 0x00, 0x04, 0x00, 0x0e, 0x00, 0x00, 0x00, 0x0c, 0x00, 0x00, 0x00, 0x2c, 0x00, 0x00, 0x00, 0x00, 0x00, 0x00, 0x09, 0x34, 0xdd, 0xff, 0xff,
  0x08, 0x00, 0x00, 0x00, 0x14, 0x00, 0x00, 0x00, 0x01, 0x00, 0x00, 0x00, 0xdd, 0xff, 0xff, 0xff, 0xff, 0xff, 0xff, 0xff, 0x00, 0x00, 0x00, 0x00, 0x01, 0x00, 0x00, 0x00, 0x06, 0xba, 0x0d, 0x3d, 0x2c, 0x00, 0x00, 0x00, 0x6d, 0x6f, 0x64, 0x65, 0x6c, 0x5f, 0x33, 0x2f, 0x6c, 0x61, 0x6d, 0x62, 0x64, 0x61, 0x5f, 0x32, 0x2f, 0x63, 0x6c, 0x69, 0x70, 0x5f, 0x62, 0x79,
  0x5f, 0x76, 0x61, 0x6c, 0x75, 0x65, 0x2f, 0x79, 0x5f, 0x72, 0x65, 0x71, 0x75, 0x61, 0x6e, 0x74, 0x69, 0x7a, 0x65, 0x64, 0x00, 0x00, 0x00, 0x00, 0x20, 0xdd, 0xff, 0xff, 0x18, 0x00, 0x00, 0x00, 0x20, 0x00, 0x00, 0x00, 0x3c, 0x00, 0x00, 0x00, 0x1f, 0x00, 0x00, 0x00, 0x00, 0x00, 0x00, 0x09, 0x44, 0x00, 0x00, 0x00, 0x02, 0x00, 0x00, 0x00, 0xff, 0xff, 0xff, 0xff,
  0x02, 0x00, 0x00, 0x00, 0xb4, 0xdd, 0xff, 0xff, 0x08, 0x00, 0x00, 0x00, 0x10, 0x00, 0x00, 0x00, 0x01, 0x00, 0x00, 0x00, 0x80, 0xff, 0xff, 0xff, 0xff, 0xff, 0xff, 0xff, 0x01, 0x00, 0x00, 0x00, 0x00, 0x00, 0x80, 0x3b, 0x0d, 0x00, 0x00, 0x00, 0x49, 0x64, 0x65, 0x6e, 0x74, 0x69, 0x74, 0x79, 0x5f, 0x69, 0x6e, 0x74, 0x38, 0x00, 0x00, 0x00, 0x02, 0x00, 0x00, 0x00,
  0x01, 0x00, 0x00, 0x00, 0x02, 0x00, 0x00, 0x00, 0x88, 0xdd, 0xff, 0xff, 0x18, 0x00, 0x00, 0x00, 0x20, 0x00, 0x00, 0x00, 0x54, 0x00, 0x00, 0x00, 0x1e, 0x00, 0x00, 0x00, 0x00, 0x00, 0x00, 0x09, 0x6c, 0x00, 0x00, 0x00, 0x02, 0x00, 0x00, 0x00, 0xff, 0xff, 0xff, 0xff, 0x02, 0x00, 0x00, 0x00, 0x6c, 0xdd, 0xff, 0xff, 0x10, 0x00, 0x00, 0x00, 0x18, 0x00, 0x00, 0x00,
  0x1c, 0x00, 0x00, 0x00, 0x20, 0x00, 0x00, 0x00, 0x01, 0x00, 0x00, 0x00, 0xdd, 0xff, 0xff, 0xff, 0xff, 0xff, 0xff, 0xff, 0x01, 0x00, 0x00, 0x00, 0x06, 0xba, 0x0d, 0x3d, 0x01, 0x00, 0x00, 0x00, 0xf7, 0xb8, 0xb3, 0x40, 0x01, 0x00, 0x00, 0x00, 0x40, 0x3f, 0x4d, 0xc0, 0x1e, 0x00, 0x00, 0x00, 0x6d, 0x6f, 0x64, 0x65, 0x6c, 0x5f, 0x33, 0x2f, 0x6c, 0x61, 0x6d, 0x62,
  0x64, 0x61, 0x5f, 0x32, 0x2f, 0x63, 0x6c, 0x69, 0x70, 0x5f, 0x62, 0x79, 0x5f, 0x76, 0x61, 0x6c, 0x75, 0x65, 0x00, 0x00, 0x02, 0x00, 0x00, 0x00, 0x01, 0x00, 0x00, 0x00, 0x02, 0x00, 0x00, 0x00, 0x18, 0xde, 0xff, 0xff, 0x18, 0x00, 0x00, 0x00, 0x20, 0x00, 0x00, 0x00, 0x54, 0x00, 0x00, 0x00, 0x1d, 0x00, 0x00, 0x00, 0x00, 0x00, 0x00, 0x09, 0x74, 0x00, 0x00, 0x00,
  0x02, 0x00, 0x00, 0x00, 0xff, 0xff, 0xff, 0xff, 0x02, 0x00, 0x00, 0x00, 0xfc, 0xdd, 0xff, 0xff, 0x10, 0x00, 0x00, 0x00, 0x18, 0x00, 0x00, 0x00, 0x1c, 0x00, 0x00, 0x00, 0x20, 0x00, 0x00, 0x00, 0x01, 0x00, 0x00, 0x00, 0xdd, 0xff, 0xff, 0xff, 0xff, 0xff, 0xff, 0xff, 0x01, 0x00, 0x00, 0x00, 0x06, 0xba, 0x0d, 0x3d, 0x01, 0x00, 0x00, 0x00, 0xf7, 0xb8, 0xb3, 0x40,
  0x01, 0x00, 0x00, 0x00, 0x40, 0x3f, 0x4d, 0xc0, 0x26, 0x00, 0x00, 0x00, 0x6d, 0x6f, 0x64, 0x65, 0x6c, 0x5f, 0x33, 0x2f, 0x6c, 0x61, 0x6d, 0x62, 0x64, 0x61, 0x5f, 0x32, 0x2f, 0x63, 0x6c, 0x69, 0x70, 0x5f, 0x62, 0x79, 0x5f, 0x76, 0x61, 0x6c, 0x75, 0x65, 0x2f, 0x4d, 0x69, 0x6e, 0x69, 0x6d, 0x75, 0x6d, 0x00, 0x00, 0x02, 0x00, 0x00, 0x00, 0x01, 0x00, 0x00, 0x00,
  0x02, 0x00, 0x00, 0x00, 0xb0, 0xde, 0xff, 0xff, 0x18, 0x00, 0x00, 0x00, 0x20, 0x00, 0x00, 0x00, 0x54, 0x00, 0x00, 0x00, 0x1c, 0x00, 0x00, 0x00, 0x00, 0x00, 0x00, 0x09, 0x7c, 0x00, 0x00, 0x00, 0x02, 0x00, 0x00, 0x00, 0xff, 0xff, 0xff, 0xff, 0x02, 0x00, 0x00, 0x00, 0x94, 0xde, 0xff, 0xff, 0x10, 0x00, 0x00, 0x00, 0x18, 0x00, 0x00, 0x00, 0x1c, 0x00, 0x00, 0x00,
  0x20, 0x00, 0x00, 0x00, 0x01, 0x00, 0x00, 0x00, 0xdd, 0xff, 0xff, 0xff, 0xff, 0xff, 0xff, 0xff, 0x01, 0x00, 0x00, 0x00, 0x06, 0xba, 0x0d, 0x3d, 0x01, 0x00, 0x00, 0x00, 0xf7, 0xb8, 0xb3, 0x40, 0x01, 0x00, 0x00, 0x00, 0x40, 0x3f, 0x4d, 0xc0, 0x2e, 0x00, 0x00, 0x00, 0x6d, 0x6f, 0x64, 0x65, 0x6c, 0x5f, 0x33, 0x2f, 0x64, 0x65, 0x6e, 0x73, 0x65, 0x5f, 0x34, 0x2f,
  0x4d, 0x61, 0x74, 0x4d, 0x75, 0x6c, 0x3b, 0x6d, 0x6f, 0x64, 0x65, 0x6c, 0x5f, 0x33, 0x2f, 0x64, 0x65, 0x6e, 0x73, 0x65, 0x5f, 0x34, 0x2f, 0x42, 0x69, 0x61, 0x73, 0x41, 0x64, 0x64, 0x00, 0x00, 0x02, 0x00, 0x00, 0x00, 0x01, 0x00, 0x00, 0x00, 0x02, 0x00, 0x00, 0x00, 0x50, 0xdf, 0xff, 0xff, 0x18, 0x00, 0x00, 0x00, 0x20, 0x00, 0x00, 0x00, 0x54, 0x00, 0x00, 0x00,
  0x1b, 0x00, 0x00, 0x00, 0x00, 0x00, 0x00, 0x09, 0x74, 0x00, 0x00, 0x00, 0x02, 0x00, 0x00, 0x00, 0xff, 0xff, 0xff, 0xff, 0x20, 0x00, 0x00, 0x00, 0x34, 0xdf, 0xff, 0xff, 0x10, 0x00, 0x00, 0x00, 0x18, 0x00, 0x00, 0x00, 0x1c, 0x00, 0x00, 0x00, 0x20, 0x00, 0x00, 0x00, 0x01, 0x00, 0x00, 0x00, 0x80, 0xff, 0xff, 0xff, 0xff, 0xff, 0xff, 0xff, 0x01, 0x00, 0x00, 0x00,
  0x9a, 0xf9, 0x23, 0x3c, 0x01, 0x00, 0x00, 0x00, 0xa0, 0x55, 0x23, 0x40, 0x01, 0x00, 0x00, 0x00, 0x00, 0x00, 0x00, 0x00, 0x27, 0x00, 0x00, 0x00, 0x6d, 0x6f, 0x64, 0x65, 0x6c, 0x5f, 0x33, 0x2f, 0x67, 0x6c, 0x6f, 0x62, 0x61, 0x6c, 0x5f, 0x61, 0x76, 0x65, 0x72, 0x61, 0x67, 0x65, 0x5f, 0x70, 0x6f, 0x6f, 0x6c, 0x69, 0x6e, 0x67, 0x32, 0x64, 0x5f, 0x33, 0x2f, 0x4d,
  0x65, 0x61, 0x6e, 0x00, 0x02, 0x00, 0x00, 0x00, 0x01, 0x00, 0x00, 0x00, 0x20, 0x00, 0x00, 0x00, 0xe8, 0xdf, 0xff, 0xff, 0x18, 0x00, 0x00, 0x00, 0x28, 0x00, 0x00, 0x00, 0x60, 0x00, 0x00, 0x00, 0x1a, 0x00, 0x00, 0x00, 0x00, 0x00, 0x00, 0x09, 0x84, 0x00, 0x00, 0x00, 0x04, 0x00, 0x00, 0x00, 0xff, 0xff, 0xff, 0xff, 0x03, 0x00, 0x00, 0x00, 0x10, 0x00, 0x00, 0x00,
  0x20, 0x00, 0x00, 0x00, 0xd4, 0xdf, 0xff, 0xff, 0x10, 0x00, 0x00, 0x00, 0x1c, 0x00, 0x00, 0x00, 0x20, 0x00, 0x00, 0x00, 0x24, 0x00, 0x00, 0x00, 0x01, 0x00, 0x00, 0x00, 0x80, 0xff, 0xff, 0xff, 0xff, 0xff, 0xff, 0xff, 0x00, 0x00, 0x00, 0x00, 0x01, 0x00, 0x00, 0x00, 0x97, 0x13, 0x6e, 0x3d, 0x01, 0x00, 0x00, 0x00, 0x83, 0x25, 0x6d, 0x41, 0x01, 0x00, 0x00, 0x00,
  0x00, 0x00, 0x00, 0x00, 0x28, 0x00, 0x00, 0x00, 0x6d, 0x6f, 0x64, 0x65, 0x6c, 0x5f, 0x33, 0x2f, 0x72, 0x65, 0x5f, 0x6c, 0x75, 0x5f, 0x33, 0x31, 0x2f, 0x52, 0x65, 0x6c, 0x75, 0x3b, 0x6d, 0x6f, 0x64, 0x65, 0x6c, 0x5f, 0x33, 0x2f, 0x61, 0x64, 0x64, 0x5f, 0x31, 0x33, 0x2f, 0x61, 0x64, 0x64, 0x00, 0x00, 0x00, 0x00, 0x04, 0x00, 0x00, 0x00, 0x01, 0x00, 0x00, 0x00,
  0x03, 0x00, 0x00, 0x00, 0x10, 0x00, 0x00, 0x00, 0x20, 0x00, 0x00, 0x00, 0x98, 0xe0, 0xff, 0xff, 0x18, 0x00, 0x00, 0x00, 0x28, 0x00, 0x00, 0x00, 0x60, 0x00, 0x00, 0x00, 0x19, 0x00, 0x00, 0x00, 0x00, 0x00, 0x00, 0x09, 0xa4, 0x00, 0x00, 0x00, 0x04, 0x00, 0x00, 0x00, 0xff, 0xff, 0xff, 0xff, 0x03, 0x00, 0x00, 0x00, 0x10, 0x00, 0x00, 0x00, 0x20, 0x00, 0x00, 0x00,
  0x84, 0xe0, 0xff, 0xff, 0x10, 0x00, 0x00, 0x00, 0x1c, 0x00, 0x00, 0x00, 0x20, 0x00, 0x00, 0x00, 0x24, 0x00, 0x00, 0x00, 0x01, 0x00, 0x00, 0x00, 0xf4, 0xff, 0xff, 0xff, 0xff, 0xff, 0xff, 0xff, 0x00, 0x00, 0x00, 0x00, 0x01, 0x00, 0x00, 0x00, 0x5c, 0x2c, 0x67, 0x3d, 0x01, 0x00, 0x00, 0x00, 0x94, 0xbb, 0xfa, 0x40, 0x01, 0x00, 0x00, 0x00, 0xcc, 0xce, 0xd1, 0xc0,
  0x49, 0x00, 0x00, 0x00, 0x6d, 0x6f, 0x64, 0x65, 0x6c, 0x5f, 0x33, 0x2f, 0x62, 0x61, 0x74, 0x63, 0x68, 0x5f, 0x6e, 0x6f, 0x72, 0x6d, 0x61, 0x6c, 0x69, 0x7a, 0x61, 0x74, 0x69, 0x6f, 0x6e, 0x5f, 0x33, 0x37, 0x2f, 0x46, 0x75, 0x73, 0x65, 0x64, 0x42, 0x61, 0x74, 0x63, 0x68, 0x4e, 0x6f, 0x72, 0x6d, 0x56, 0x33, 0x3b, 0x6d, 0x6f, 0x64, 0x65, 0x6c, 0x5f, 0x33, 0x2f,
  0x63, 0x6f, 0x6e, 0x76, 0x32, 0x64, 0x5f, 0x33, 0x32, 0x2f, 0x43, 0x6f, 0x6e, 0x76, 0x32, 0x44, 0x31, 0x00, 0x00, 0x00, 0x04, 0x00, 0x00, 0x00, 0x01, 0x00, 0x00, 0x00, 0x03, 0x00, 0x00, 0x00, 0x10, 0x00, 0x00, 0x00, 0x20, 0x00, 0x00, 0x00, 0x68, 0xe1, 0xff, 0xff, 0x18, 0x00, 0x00, 0x00, 0x28, 0x00, 0x00, 0x00, 0x60, 0x00, 0x00, 0x00, 0x18, 0x00, 0x00, 0x00,
  0x00, 0x00, 0x00, 0x09, 0xc4, 0x00, 0x00, 0x00, 0x04, 0x00, 0x00, 0x00, 0xff, 0xff, 0xff, 0xff, 0x03, 0x00, 0x00, 0x00, 0x10, 0x00, 0x00, 0x00, 0x10, 0x00, 0x00, 0x00, 0x54, 0xe1, 0xff, 0xff, 0x10, 0x00, 0x00, 0x00, 0x1c, 0x00, 0x00, 0x00, 0x20, 0x00, 0x00, 0x00, 0x24, 0x00, 0x00, 0x00, 0x01, 0x00, 0x00, 0x00, 0x80, 0xff, 0xff, 0xff, 0xff, 0xff, 0xff, 0xff,
  0x00, 0x00, 0x00, 0x00, 0x01, 0x00, 0x00, 0x00, 0xc3, 0x07, 0xae, 0x3c, 0x01, 0x00, 0x00, 0x00, 0xbb, 0x59, 0xad, 0x40, 0x01, 0x00, 0x00, 0x00, 0x00, 0x00, 0x00, 0x00, 0x6a, 0x00, 0x00, 0x00, 0x6d, 0x6f, 0x64, 0x65, 0x6c, 0x5f, 0x33, 0x2f, 0x72, 0x65, 0x5f, 0x6c, 0x75, 0x5f, 0x33, 0x30, 0x2f, 0x52, 0x65, 0x6c, 0x75, 0x3b, 0x6d, 0x6f, 0x64, 0x65, 0x6c, 0x5f,
  0x33, 0x2f, 0x62, 0x61, 0x74, 0x63, 0x68, 0x5f, 0x6e, 0x6f, 0x72, 0x6d, 0x61, 0x6c, 0x69, 0x7a, 0x61, 0x74, 0x69, 0x6f, 0x6e, 0x5f, 0x33, 0x36, 0x2f, 0x46, 0x75, 0x73, 0x65, 0x64, 0x42, 0x61, 0x74, 0x63, 0x68, 0x4e, 0x6f, 0x72, 0x6d, 0x56, 0x33, 0x3b, 0x6d, 0x6f, 0x64, 0x65, 0x6c, 0x5f, 0x33, 0x2f, 0x64, 0x65, 0x70, 0x74, 0x68, 0x77, 0x69, 0x73, 0x65, 0x5f,
  0x63, 0x6f, 0x6e, 0x76, 0x32, 0x64, 0x5f, 0x33, 0x2f, 0x64, 0x65, 0x70, 0x74, 0x68, 0x77, 0x69, 0x73, 0x65, 0x00, 0x00, 0x04, 0x00, 0x00, 0x00, 0x01, 0x00, 0x00, 0x00, 0x03, 0x00, 0x00, 0x00, 0x10, 0x00, 0x00, 0x00, 0x10, 0x00, 0x00, 0x00, 0x58, 0xe2, 0xff, 0xff, 0x18, 0x00, 0x00, 0x00, 0x28, 0x00, 0x00, 0x00, 0x60, 0x00, 0x00, 0x00, 0x17, 0x00, 0x00, 0x00,
  0x00, 0x00, 0x00, 0x09, 0xbc, 0x00, 0x00, 0x00, 0x04, 0x00, 0x00, 0x00, 0xff, 0xff, 0xff, 0xff, 0x03, 0x00, 0x00, 0x00, 0x10, 0x00, 0x00, 0x00, 0x20, 0x00, 0x00, 0x00, 0x44, 0xe2, 0xff, 0xff, 0x10, 0x00, 0x00, 0x00, 0x1c, 0x00, 0x00, 0x00, 0x20, 0x00, 0x00, 0x00, 0x24, 0x00, 0x00, 0x00, 0x01, 0x00, 0x00, 0x00, 0xee, 0xff, 0xff, 0xff, 0xff, 0xff, 0xff, 0xff,
  0x00, 0x00, 0x00, 0x00, 0x01, 0x00, 0x00, 0x00, 0xcf, 0x2e, 0xa5, 0x3d, 0x01, 0x00, 0x00, 0x00, 0xb7, 0xbc, 0x3b, 0x41, 0x01, 0x00, 0x00, 0x00, 0x8a, 0x56, 0x0d, 0xc1, 0x62, 0x00, 0x00, 0x00, 0x6d, 0x6f, 0x64, 0x65, 0x6c, 0x5f, 0x33, 0x2f, 0x62, 0x61, 0x74, 0x63, 0x68, 0x5f, 0x6e, 0x6f, 0x72, 0x6d, 0x61, 0x6c, 0x69, 0x7a, 0x61, 0x74, 0x69, 0x6f, 0x6e, 0x5f,
  0x33, 0x38, 0x2f, 0x46, 0x75, 0x73, 0x65, 0x64, 0x42, 0x61, 0x74, 0x63, 0x68, 0x4e, 0x6f, 0x72, 0x6d, 0x56, 0x33, 0x3b, 0x6d, 0x6f, 0x64, 0x65, 0x6c, 0x5f, 0x33, 0x2f, 0x63, 0x6f, 0x6e, 0x76, 0x32, 0x64, 0x5f, 0x33, 0x32, 0x2f, 0x43, 0x6f, 0x6e, 0x76, 0x32, 0x44, 0x3b, 0x6d, 0x6f, 0x64, 0x65, 0x6c, 0x5f, 0x33, 0x2f, 0x63, 0x6f, 0x6e, 0x76, 0x32, 0x64, 0x5f,
  0x33, 0x33, 0x2f, 0x43, 0x6f, 0x6e, 0x76, 0x32, 0x44, 0x31, 0x00, 0x00, 0x04, 0x00, 0x00, 0x00, 0x01, 0x00, 0x00, 0x00, 0x03, 0x00, 0x00, 0x00, 0x10, 0x00, 0x00, 0x00, 0x20, 0x00, 0x00, 0x00, 0x40, 0xe3, 0xff, 0xff, 0x18, 0x00, 0x00, 0x00, 0x28, 0x00, 0x00, 0x00, 0x60, 0x00, 0x00, 0x00, 0x16, 0x00, 0x00, 0x00, 0x00, 0x00, 0x00, 0x09, 0x84, 0x00, 0x00, 0x00,
  0x04, 0x00, 0x00, 0x00, 0xff, 0xff, 0xff, 0xff, 0x06, 0x00, 0x00, 0x00, 0x20, 0x00, 0x00, 0x00, 0x10, 0x00, 0x00, 0x00, 0x2c, 0xe3, 0xff, 0xff, 0x10, 0x00, 0x00, 0x00, 0x1c, 0x00, 0x00, 0x00, 0x20, 0x00, 0x00, 0x00, 0x24, 0x00, 0x00, 0x00, 0x01, 0x00, 0x00, 0x00, 0x80, 0xff, 0xff, 0xff, 0xff, 0xff, 0xff, 0xff, 0x00, 0x00, 0x00, 0x00, 0x01, 0x00, 0x00, 0x00,
  0xeb, 0xde, 0x5e, 0x3d, 0x01, 0x00, 0x00, 0x00, 0x0c, 0x00, 0x5e, 0x41, 0x01, 0x00, 0x00, 0x00, 0x00, 0x00, 0x00, 0x00, 0x28, 0x00, 0x00, 0x00, 0x6d, 0x6f, 0x64, 0x65, 0x6c, 0x5f, 0x33, 0x2f, 0x72, 0x65, 0x5f, 0x6c, 0x75, 0x5f, 0x32, 0x39, 0x2f, 0x52, 0x65, 0x6c, 0x75, 0x3b, 0x6d, 0x6f, 0x64, 0x65, 0x6c, 0x5f, 0x33, 0x2f, 0x61, 0x64, 0x64, 0x5f, 0x31, 0x32,
  0x2f, 0x61, 0x64, 0x64, 0x00, 0x00, 0x00, 0x00, 0x04, 0x00, 0x00, 0x00, 0x01, 0x00, 0x00, 0x00, 0x06, 0x00, 0x00, 0x00, 0x20, 0x00, 0x00, 0x00, 0x10, 0x00, 0x00, 0x00, 0xf0, 0xe3, 0xff, 0xff, 0x18, 0x00, 0x00, 0x00, 0x28, 0x00, 0x00, 0x00, 0x5c, 0x00, 0x00, 0x00, 0x15, 0x00, 0x00, 0x00, 0x00, 0x00, 0x00, 0x09, 0xc4, 0x00, 0x00, 0x00, 0x04, 0x00, 0x00, 0x00,
  0xff, 0xff, 0xff, 0xff, 0x06, 0x00, 0x00, 0x00, 0x20, 0x00, 0x00, 0x00, 0x10, 0x00, 0x00, 0x00, 0xdc, 0xe3, 0xff, 0xff, 0x10, 0x00, 0x00, 0x00, 0x18, 0x00, 0x00, 0x00, 0x1c, 0x00, 0x00, 0x00, 0x20, 0x00, 0x00, 0x00, 0x01, 0x00, 0x00, 0x00, 0xf8, 0xff, 0xff, 0xff, 0xff, 0xff, 0xff, 0xff, 0x01, 0x00, 0x00, 0x00, 0xd8, 0x51, 0x96, 0x3d, 0x01, 0x00, 0x00, 0x00,
  0xd2, 0xdb, 0x1e, 0x41, 0x01, 0x00, 0x00, 0x00, 0x3a, 0x9b, 0x0c, 0xc1, 0x6e, 0x00, 0x00, 0x00, 0x6d, 0x6f, 0x64, 0x65, 0x6c, 0x5f, 0x33, 0x2f, 0x62, 0x61, 0x74, 0x63, 0x68, 0x5f, 0x6e, 0x6f, 0x72, 0x6d, 0x61, 0x6c, 0x69, 0x7a, 0x61, 0x74, 0x69, 0x6f, 0x6e, 0x5f, 0x33, 0x35, 0x2f, 0x46, 0x75, 0x73, 0x65, 0x64, 0x42, 0x61, 0x74, 0x63, 0x68, 0x4e, 0x6f, 0x72,
  0x6d, 0x56, 0x33, 0x3b, 0x6d, 0x6f, 0x64, 0x65, 0x6c, 0x5f, 0x33, 0x2f, 0x64, 0x65, 0x70, 0x74, 0x68, 0x77, 0x69, 0x73, 0x65, 0x5f, 0x63, 0x6f, 0x6e, 0x76, 0x32, 0x64, 0x5f, 0x33, 0x2f, 0x64, 0x65, 0x70, 0x74, 0x68, 0x77, 0x69, 0x73, 0x65, 0x3b, 0x6d, 0x6f, 0x64, 0x65, 0x6c, 0x5f, 0x33, 0x2f, 0x63, 0x6f, 0x6e, 0x76, 0x32, 0x64, 0x5f, 0x33, 0x31, 0x2f, 0x43,
  0x6f, 0x6e, 0x76, 0x32, 0x44, 0x31, 0x00, 0x00, 0x04, 0x00, 0x00, 0x00, 0x01, 0x00, 0x00, 0x00, 0x06, 0x00, 0x00, 0x00, 0x20, 0x00, 0x00, 0x00, 0x10, 0x00, 0x00, 0x00, 0xe0, 0xe4, 0xff, 0xff, 0x18, 0x00, 0x00, 0x00, 0x28, 0x00, 0x00, 0x00, 0x5c, 0x00, 0x00, 0x00, 0x14, 0x00, 0x00, 0x00, 0x00, 0x00, 0x00, 0x09, 0x14, 0x01, 0x00, 0x00, 0x04, 0x00, 0x00, 0x00,
  0xff, 0xff, 0xff, 0xff, 0x06, 0x00, 0x00, 0x00, 0x20, 0x00, 0x00, 0x00, 0x10, 0x00, 0x00, 0x00, 0xcc, 0xe4, 0xff, 0xff, 0x10, 0x00, 0x00, 0x00, 0x18, 0x00, 0x00, 0x00, 0x1c, 0x00, 0x00, 0x00, 0x20, 0x00, 0x00, 0x00, 0x01, 0x00, 0x00, 0x00, 0x80, 0xff, 0xff, 0xff, 0xff, 0xff, 0xff, 0xff, 0x01, 0x00, 0x00, 0x00, 0xbb, 0x3c, 0x30, 0x3d, 0x01, 0x00, 0x00, 0x00,
  0x7e, 0x8c, 0x2f, 0x41, 0x01, 0x00, 0x00, 0x00, 0x00, 0x00, 0x00, 0x00, 0xbf, 0x00, 0x00, 0x00, 0x6d, 0x6f, 0x64, 0x65, 0x6c, 0x5f, 0x33, 0x2f, 0x72, 0x65, 0x5f, 0x6c, 0x75, 0x5f, 0x32, 0x38, 0x2f, 0x52, 0x65, 0x6c, 0x75, 0x3b, 0x6d, 0x6f, 0x64, 0x65, 0x6c, 0x5f, 0x33, 0x2f, 0x62, 0x61, 0x74, 0x63, 0x68, 0x5f, 0x6e, 0x6f, 0x72, 0x6d, 0x61, 0x6c, 0x69, 0x7a,
  0x61, 0x74, 0x69, 0x6f, 0x6e, 0x5f, 0x33, 0x34, 0x2f, 0x46, 0x75, 0x73, 0x65, 0x64, 0x42, 0x61, 0x74, 0x63, 0x68, 0x4e, 0x6f, 0x72, 0x6d, 0x56, 0x33, 0x3b, 0x6d, 0x6f, 0x64, 0x65, 0x6c, 0x5f, 0x33, 0x2f, 0x62, 0x61, 0x74, 0x63, 0x68, 0x5f, 0x6e, 0x6f, 0x72, 0x6d, 0x61, 0x6c, 0x69, 0x7a, 0x61, 0x74, 0x69, 0x6f, 0x6e, 0x5f, 0x33, 0x36, 0x2f, 0x46, 0x75, 0x73,
  0x65, 0x64, 0x42, 0x61, 0x74, 0x63, 0x68, 0x4e, 0x6f, 0x72, 0x6d, 0x56, 0x33, 0x3b, 0x6d, 0x6f, 0x64, 0x65, 0x6c, 0x5f, 0x33, 0x2f, 0x64, 0x65, 0x70, 0x74, 0x68, 0x77, 0x69, 0x73, 0x65, 0x5f, 0x63, 0x6f, 0x6e, 0x76, 0x32, 0x64, 0x5f, 0x33, 0x2f, 0x64, 0x65, 0x70, 0x74, 0x68, 0x77, 0x69, 0x73, 0x65, 0x3b, 0x6d, 0x6f, 0x64, 0x65, 0x6c, 0x5f, 0x33, 0x2f, 0x64,
  0x65, 0x70, 0x74, 0x68, 0x77, 0x69, 0x73, 0x65, 0x5f, 0x63, 0x6f, 0x6e, 0x76, 0x32, 0x64, 0x5f, 0x32, 0x2f, 0x64, 0x65, 0x70, 0x74, 0x68, 0x77, 0x69, 0x73, 0x65, 0x00, 0x04, 0x00, 0x00, 0x00, 0x01, 0x00, 0x00, 0x00, 0x06, 0x00, 0x00, 0x00, 0x20, 0x00, 0x00, 0x00, 0x10, 0x00, 0x00, 0x00, 0x20, 0xe6, 0xff, 0xff, 0x18, 0x00, 0x00, 0x00, 0x28, 0x00, 0x00, 0x00,
  0x60, 0x00, 0x00, 0x00, 0x13, 0x00, 0x00, 0x00, 0x00, 0x00, 0x00, 0x09, 0x0c, 0x01, 0x00, 0x00, 0x04, 0x00, 0x00, 0x00, 0xff, 0xff, 0xff, 0xff, 0x06, 0x00, 0x00, 0x00, 0x20, 0x00, 0x00, 0x00, 0x10, 0x00, 0x00, 0x00, 0x0c, 0xe6, 0xff, 0xff, 0x10, 0x00, 0x00, 0x00, 0x1c, 0x00, 0x00, 0x00, 0x20, 0x00, 0x00, 0x00, 0x24, 0x00, 0x00, 0x00, 0x01, 0x00, 0x00, 0x00,
  0x80, 0xff, 0xff, 0xff, 0xff, 0xff, 0xff, 0xff, 0x00, 0x00, 0x00, 0x00, 0x01, 0x00, 0x00, 0x00, 0xf6, 0x94, 0x1d, 0x3d, 0x01, 0x00, 0x00, 0x00, 0x61, 0xf7, 0x1c, 0x41, 0x01, 0x00, 0x00, 0x00, 0x00, 0x00, 0x00, 0x00, 0xb3, 0x00, 0x00, 0x00, 0x6d, 0x6f, 0x64, 0x65, 0x6c, 0x5f, 0x33, 0x2f, 0x72, 0x65, 0x5f, 0x6c, 0x75, 0x5f, 0x32, 0x37, 0x2f, 0x52, 0x65, 0x6c,
  0x75, 0x3b, 0x6d, 0x6f, 0x64, 0x65, 0x6c, 0x5f, 0x33, 0x2f, 0x62, 0x61, 0x74, 0x63, 0x68, 0x5f, 0x6e, 0x6f, 0x72, 0x6d, 0x61, 0x6c, 0x69, 0x7a, 0x61, 0x74, 0x69, 0x6f, 0x6e, 0x5f, 0x33, 0x33, 0x2f, 0x46, 0x75, 0x73, 0x65, 0x64, 0x42, 0x61, 0x74, 0x63, 0x68, 0x4e, 0x6f, 0x72, 0x6d, 0x56, 0x33, 0x3b, 0x6d, 0x6f, 0x64, 0x65, 0x6c, 0x5f, 0x33, 0x2f, 0x62, 0x61,
  0x74, 0x63, 0x68, 0x5f, 0x6e, 0x6f, 0x72, 0x6d, 0x61, 0x6c, 0x69, 0x7a, 0x61, 0x74, 0x69, 0x6f, 0x6e, 0x5f, 0x33, 0x36, 0x2f, 0x46, 0x75, 0x73, 0x65, 0x64, 0x42, 0x61, 0x74, 0x63, 0x68, 0x4e, 0x6f, 0x72, 0x6d, 0x56, 0x33, 0x3b, 0x6d, 0x6f, 0x64, 0x65, 0x6c, 0x5f, 0x33, 0x2f, 0x64, 0x65, 0x70, 0x74, 0x68, 0x77, 0x69, 0x73, 0x65, 0x5f, 0x63, 0x6f, 0x6e, 0x76,
  0x32, 0x64, 0x5f, 0x33, 0x2f, 0x64, 0x65, 0x70, 0x74, 0x68, 0x77, 0x69, 0x73, 0x65, 0x3b, 0x6d, 0x6f, 0x64, 0x65, 0x6c, 0x5f, 0x33, 0x2f, 0x63, 0x6f, 0x6e, 0x76, 0x32, 0x64, 0x5f, 0x33, 0x30, 0x2f, 0x43, 0x6f, 0x6e, 0x76, 0x32, 0x44, 0x00, 0x04, 0x00, 0x00, 0x00, 0x01, 0x00, 0x00, 0x00, 0x06, 0x00, 0x00, 0x00, 0x20, 0x00, 0x00, 0x00, 0x10, 0x00, 0x00, 0x00,
  0xea, 0xe7, 0xff, 0xff, 0x14, 0x00, 0x00, 0x00, 0xa4, 0x01, 0x00, 0x00, 0x12, 0x00, 0x00, 0x00, 0x00, 0x00, 0x00, 0x02, 0xe8, 0x01, 0x00, 0x00, 0xdc, 0xe7, 0xff, 0xff, 0x08, 0x00, 0x00, 0x00, 0x08, 0x01, 0x00, 0x00, 0x20, 0x00, 0x00, 0x00, 0x00, 0x00, 0x00, 0x00, 0x00, 0x00, 0x00, 0x00, 0x00, 0x00, 0x00, 0x00, 0x00, 0x00, 0x00, 0x00, 0x00, 0x00, 0x00, 0x00,
  0x00, 0x00, 0x00, 0x00, 0x00, 0x00, 0x00, 0x00, 0x00, 0x00, 0x00, 0x00, 0x00, 0x00, 0x00, 0x00, 0x00, 0x00, 0x00, 0x00, 0x00, 0x00, 0x00, 0x00, 0x00, 0x00, 0x00, 0x00, 0x00, 0x00, 0x00, 0x00, 0x00, 0x00, 0x00, 0x00, 0x00, 0x00, 0x00, 0x00, 0x00, 0x00, 0x00, 0x00, 0x00, 0x00, 0x00, 0x00, 0x00, 0x00, 0x00, 0x00, 0x00, 0x00, 0x00, 0x00, 0x00, 0x00, 0x00, 0x00,
  0x00, 0x00, 0x00, 0x00, 0x00, 0x00, 0x00, 0x00, 0x00, 0x00, 0x00, 0x00, 0x00, 0x00, 0x00, 0x00, 0x00, 0x00, 0x00, 0x00, 0x00, 0x00, 0x00, 0x00, 0x00, 0x00, 0x00, 0x00, 0x00, 0x00, 0x00, 0x00, 0x00, 0x00, 0x00, 0x00, 0x00, 0x00, 0x00, 0x00, 0x00, 0x00, 0x00, 0x00, 0x00, 0x00, 0x00, 0x00, 0x00, 0x00, 0x00, 0x00, 0x00, 0x00, 0x00, 0x00, 0x00, 0x00, 0x00, 0x00,
  0x00, 0x00, 0x00, 0x00, 0x00, 0x00, 0x00, 0x00, 0x00, 0x00, 0x00, 0x00, 0x00, 0x00, 0x00, 0x00, 0x00, 0x00, 0x00, 0x00, 0x00, 0x00, 0x00, 0x00, 0x00, 0x00, 0x00, 0x00, 0x00, 0x00, 0x00, 0x00, 0x00, 0x00, 0x00, 0x00, 0x00, 0x00, 0x00, 0x00, 0x00, 0x00, 0x00, 0x00, 0x00, 0x00, 0x00, 0x00, 0x00, 0x00, 0x00, 0x00, 0x00, 0x00, 0x00, 0x00, 0x00, 0x00, 0x00, 0x00,
  0x00, 0x00, 0x00, 0x00, 0x00, 0x00, 0x00, 0x00, 0x00, 0x00, 0x00, 0x00, 0x00, 0x00, 0x00, 0x00, 0x00, 0x00, 0x00, 0x00, 0x00, 0x00, 0x00, 0x00, 0x00, 0x00, 0x00, 0x00, 0x00, 0x00, 0x00, 0x00, 0x00, 0x00, 0x00, 0x00, 0x00, 0x00, 0x00, 0x00, 0x00, 0x00, 0x00, 0x00, 0x00, 0x00, 0x00, 0x00, 0x00, 0x00, 0x00, 0x00, 0x00, 0x00, 0x00, 0x00, 0x20, 0x00, 0x00, 0x00,
  0x28, 0x83, 0xf5, 0x38, 0xde, 0x23, 0x36, 0x39, 0x8b, 0x2b, 0x5f, 0x39, 0xe6, 0x76, 0xe5, 0x38, 0x37, 0xc5, 0x07, 0x39, 0x37, 0x10, 0x22, 0x39, 0xee, 0x77, 0x0a, 0x39, 0xff, 0xdf, 0x01, 0x39, 0xec, 0x01, 0x08, 0x39, 0xbe, 0xee, 0x43, 0x39, 0x07, 0xe9, 0x39, 0x39, 0xf7, 0x7f, 0x0c, 0x39, 0x31, 0x4f, 0x48, 0x39, 0xe4, 0x4e, 0x2a, 0x39, 0x0e, 0x9e, 0x19, 0x39,
  0x13, 0xe4, 0xce, 0x38, 0xca, 0xdc, 0x06, 0x39, 0x09, 0x3b, 0xd7, 0x38, 0xbf, 0x26, 0xda, 0x38, 0xf0, 0x3b, 0x3b, 0x39, 0x1b, 0x16, 0x1e, 0x39, 0xb9, 0x32, 0xc0, 0x38, 0x38, 0xc2, 0x03, 0x39, 0xde, 0x7c, 0x31, 0x39, 0xfa, 0x40, 0x1b, 0x39, 0xf5, 0xdb, 0x1b, 0x39, 0xcd, 0xbc, 0x29, 0x39, 0x3a, 0x68, 0x35, 0x39, 0x08, 0xcb, 0x53, 0x39, 0x99, 0xd6, 0x16, 0x39,
  0xf8, 0x91, 0x0e, 0x39, 0x45, 0x7c, 0x61, 0x39, 0x48, 0x00, 0x00, 0x00, 0x6d, 0x6f, 0x64, 0x65, 0x6c, 0x5f, 0x33, 0x2f, 0x62, 0x61, 0x74, 0x63, 0x68, 0x5f, 0x6e, 0x6f, 0x72, 0x6d, 0x61, 0x6c, 0x69, 0x7a, 0x61, 0x74, 0x69, 0x6f, 0x6e, 0x5f, 0x33, 0x37, 0x2f, 0x46, 0x75, 0x73, 0x65, 0x64, 0x42, 0x61, 0x74, 0x63, 0x68, 0x4e, 0x6f, 0x72, 0x6d, 0x56, 0x33, 0x3b,
  0x6d, 0x6f, 0x64, 0x65, 0x6c, 0x5f, 0x33, 0x2f, 0x63, 0x6f, 0x6e, 0x76, 0x32, 0x64, 0x5f, 0x33, 0x32, 0x2f, 0x43, 0x6f, 0x6e, 0x76, 0x32, 0x44, 0x00, 0x00, 0x00, 0x00, 0x01, 0x00, 0x00, 0x00, 0x20, 0x00, 0x00, 0x00, 0xee, 0xe9, 0xff, 0xff, 0x14, 0x00, 0x00, 0x00, 0x7c, 0x01, 0x00, 0x00, 0x11, 0x00, 0x00, 0x00, 0x00, 0x00, 0x00, 0x09, 0xcc, 0x01, 0x00, 0x00,
  0x82, 0xfa, 0xff, 0xff, 0x03, 0x00, 0x00, 0x00, 0x10, 0x00, 0x00, 0x00, 0x94, 0x00, 0x00, 0x00, 0xd4, 0x00, 0x00, 0x00, 0x14, 0x01, 0x00, 0x00, 0x10, 0x00, 0x00, 0x00, 0x00, 0x00, 0x00, 0x00, 0x00, 0x00, 0x00, 0x00, 0x00, 0x00, 0x00, 0x00, 0x00, 0x00, 0x00, 0x00, 0x00, 0x00, 0x00, 0x00, 0x00, 0x00, 0x00, 0x00, 0x00, 0x00, 0x00, 0x00, 0x00, 0x00, 0x00, 0x00,
  0x00, 0x00, 0x00, 0x00, 0x00, 0x00, 0x00, 0x00, 0x00, 0x00, 0x00, 0x00, 0x00, 0x00, 0x00, 0x00, 0x00, 0x00, 0x00, 0x00, 0x00, 0x00, 0x00, 0x00, 0x00, 0x00, 0x00, 0x00, 0x00, 0x00, 0x00, 0x00, 0x00, 0x00, 0x00, 0x00, 0x00, 0x00, 0x00, 0x00, 0x00, 0x00, 0x00, 0x00, 0x00, 0x00, 0x00, 0x00, 0x00, 0x00, 0x00, 0x00, 0x00, 0x00, 0x00, 0x00, 0x00, 0x00, 0x00, 0x00,
  0x00, 0x00, 0x00, 0x00, 0x00, 0x00, 0x00, 0x00, 0x00, 0x00, 0x00, 0x00, 0x00, 0x00, 0x00, 0x00, 0x00, 0x00, 0x00, 0x00, 0x00, 0x00, 0x00, 0x00, 0x00, 0x00, 0x00, 0x00, 0x00, 0x00, 0x00, 0x00, 0x00, 0x00, 0x00, 0x00, 0x00, 0x00, 0x00, 0x00, 0x10, 0x00, 0x00, 0x00, 0x34, 0x81, 0x88, 0x3b, 0x3a, 0xfd, 0xab, 0x3b, 0x20, 0x9d, 0xa9, 0x3b, 0x2b, 0xc6, 0xc7, 0x3b,
  0x49, 0x72, 0x66, 0x3b, 0x72, 0x76, 0x9f, 0x3b, 0x06, 0x63, 0xda, 0x3b, 0xea, 0x2c, 0x64, 0x3b, 0x77, 0x5d, 0x63, 0x3b, 0xff, 0xea, 0xa6, 0x3b, 0xaf, 0xdf, 0x96, 0x3b, 0xa9, 0xc6, 0xa3, 0x3b, 0x00, 0xdc, 0xbd, 0x3b, 0xd0, 0xfe, 0xbd, 0x3b, 0xc8, 0x15, 0xa5, 0x3b, 0x37, 0x57, 0x88, 0x3b, 0x10, 0x00, 0x00, 0x00, 0xa3, 0x7c, 0xaf, 0x3e, 0x40, 0xa5, 0x2a, 0x3f,
  0x91, 0xe2, 0x22, 0x3f, 0x7c, 0x98, 0x08, 0x3f, 0xe6, 0x3c, 0xa3, 0x3e, 0xee, 0x64, 0x0a, 0x3f, 0x58, 0x9b, 0x48, 0x3f, 0x90, 0x64, 0xe2, 0x3e, 0x63, 0xb8, 0x8c, 0x3e, 0xa0, 0xaf, 0xaf, 0x3e, 0xa9, 0x0a, 0x85, 0x3e, 0x13, 0x06, 0xec, 0x3e, 0xe6, 0x49, 0x18, 0x3f, 0xd2, 0x82, 0x3c, 0x3f, 0x9c, 0xcb, 0x23, 0x3f, 0xd8, 0xd0, 0xa3, 0x3e, 0x10, 0x00, 0x00, 0x00,
  0x32, 0x70, 0x07, 0xbf, 0xe5, 0x20, 0x0b, 0xbf, 0xe6, 0x49, 0x28, 0xbf, 0x9f, 0x36, 0x46, 0xbf, 0x64, 0xa5, 0xe4, 0xbe, 0x85, 0x37, 0x1e, 0xbf, 0x40, 0xae, 0x58, 0xbf, 0xd9, 0x00, 0xd9, 0xbe, 0xbc, 0x96, 0xe1, 0xbe, 0x29, 0x9d, 0x25, 0xbf, 0xf0, 0xb1, 0x15, 0xbf, 0x1c, 0x7f, 0x22, 0xbf, 0x48, 0x60, 0x3c, 0xbf, 0x5f, 0x03, 0x1b, 0xbf, 0xa4, 0x80, 0x66, 0xbe,
  0x89, 0x46, 0x07, 0xbf, 0x54, 0x00, 0x00, 0x00, 0x6d, 0x6f, 0x64, 0x65, 0x6c, 0x5f, 0x33, 0x2f, 0x62, 0x61, 0x74, 0x63, 0x68, 0x5f, 0x6e, 0x6f, 0x72, 0x6d, 0x61, 0x6c, 0x69, 0x7a, 0x61, 0x74, 0x69, 0x6f, 0x6e, 0x5f, 0x33, 0x36, 0x2f, 0x46, 0x75, 0x73, 0x65, 0x64, 0x42, 0x61, 0x74, 0x63, 0x68, 0x4e, 0x6f, 0x72, 0x6d, 0x56, 0x33, 0x3b, 0x6d, 0x6f, 0x64, 0x65,
  0x6c, 0x5f, 0x33, 0x2f, 0x64, 0x65, 0x70, 0x74, 0x68, 0x77, 0x69, 0x73, 0x65, 0x5f, 0x63, 0x6f, 0x6e, 0x76, 0x32, 0x64, 0x5f, 0x33, 0x2f, 0x64, 0x65, 0x70, 0x74, 0x68, 0x77, 0x69, 0x73, 0x65, 0x00, 0x00, 0x00, 0x00, 0x04, 0x00, 0x00, 0x00, 0x01, 0x00, 0x00, 0x00, 0x03, 0x00, 0x00, 0x00, 0x03, 0x00, 0x00, 0x00, 0x10, 0x00, 0x00, 0x00, 0xe2, 0xeb, 0xff, 0xff,
  0x14, 0x00, 0x00, 0x00, 0xa8, 0x01, 0x00, 0x00, 0x10, 0x00, 0x00, 0x00, 0x00, 0x00, 0x00, 0x02, 0x04, 0x02, 0x00, 0x00, 0xd4, 0xeb, 0xff, 0xff, 0x08, 0x00, 0x00, 0x00, 0x0c, 0x01, 0x00, 0x00, 0x20, 0x00, 0x00, 0x00, 0x00, 0x00, 0x00, 0x00, 0x00, 0x00, 0x00, 0x00, 0x00, 0x00, 0x00, 0x00, 0x00, 0x00, 0x00, 0x00, 0x00, 0x00, 0x00, 0x00, 0x00, 0x00, 0x00, 0x00,
  0x00, 0x00, 0x00, 0x00, 0x00, 0x00, 0x00, 0x00, 0x00, 0x00, 0x00, 0x00, 0x00, 0x00, 0x00, 0x00, 0x00, 0x00, 0x00, 0x00, 0x00, 0x00, 0x00, 0x00, 0x00, 0x00, 0x00, 0x00, 0x00, 0x00, 0x00, 0x00, 0x00, 0x00, 0x00, 0x00, 0x00, 0x00, 0x00, 0x00, 0x00, 0x00, 0x00, 0x00, 0x00, 0x00, 0x00, 0x00, 0x00, 0x00, 0x00, 0x00, 0x00, 0x00, 0x00, 0x00, 0x00, 0x00, 0x00, 0x00,
  0x00, 0x00, 0x00, 0x00, 0x00, 0x00, 0x00, 0x00, 0x00, 0x00, 0x00, 0x00, 0x00, 0x00, 0x00, 0x00, 0x00, 0x00, 0x00, 0x00, 0x00, 0x00, 0x00, 0x00, 0x00, 0x00, 0x00, 0x00, 0x00, 0x00, 0x00, 0x00, 0x00, 0x00, 0x00, 0x00, 0x00, 0x00, 0x00, 0x00, 0x00, 0x00, 0x00, 0x00, 0x00, 0x00, 0x00, 0x00, 0x00, 0x00, 0x00, 0x00, 0x00, 0x00, 0x00, 0x00, 0x00, 0x00, 0x00, 0x00,
  0x00, 0x00, 0x00, 0x00, 0x00, 0x00, 0x00, 0x00, 0x00, 0x00, 0x00, 0x00, 0x00, 0x00, 0x00, 0x00, 0x00, 0x00, 0x00, 0x00, 0x00, 0x00, 0x00, 0x00, 0x00, 0x00, 0x00, 0x00, 0x00, 0x00, 0x00, 0x00, 0x00, 0x00, 0x00, 0x00, 0x00, 0x00, 0x00, 0x00, 0x00, 0x00, 0x00, 0x00, 0x00, 0x00, 0x00, 0x00, 0x00, 0x00, 0x00, 0x00, 0x00, 0x00, 0x00, 0x00, 0x00, 0x00, 0x00, 0x00,
  0x00, 0x00, 0x00, 0x00, 0x00, 0x00, 0x00, 0x00, 0x00, 0x00, 0x00, 0x00, 0x00, 0x00, 0x00, 0x00, 0x00, 0x00, 0x00, 0x00, 0x00, 0x00, 0x00, 0x00, 0x00, 0x00, 0x00, 0x00, 0x00, 0x00, 0x00, 0x00, 0x00, 0x00, 0x00, 0x00, 0x00, 0x00, 0x00, 0x00, 0x00, 0x00, 0x00, 0x00, 0x00, 0x00, 0x00, 0x00, 0x00, 0x00, 0x00, 0x00, 0x00, 0x00, 0x00, 0x00, 0x20, 0x00, 0x00, 0x00,
  0xc3, 0xe8, 0x85, 0x39, 0x0b, 0x19, 0x90, 0x39, 0x8a, 0x04, 0x7f, 0x39, 0x0b, 0xee, 0x8e, 0x39, 0x36, 0x74, 0x78, 0x39, 0xab, 0xbc, 0x7d, 0x39, 0xe4, 0x02, 0x9d, 0x39, 0xc6, 0xd1, 0x82, 0x39, 0x8d, 0x18, 0x78, 0x39, 0x48, 0x63, 0x9e, 0x39, 0x2d, 0x18, 0x80, 0x39, 0x08, 0x3a, 0x37, 0x39, 0xd4, 0x56, 0xa8, 0x39, 0xa8, 0x1b, 0x82, 0x39, 0x19, 0x3b, 0xa7, 0x39,
  0xdf, 0xdc, 0x7a, 0x39, 0x2c, 0x4b, 0x3b, 0x39, 0x40, 0xf3, 0x85, 0x39, 0x65, 0x04, 0x70, 0x39, 0x02, 0xb1, 0x8b, 0x39, 0xdd, 0xcd, 0x93, 0x39, 0xa0, 0x41, 0x4c, 0x39, 0x1e, 0x67, 0x88, 0x39, 0xe8, 0xb6, 0x68, 0x39, 0x3f, 0xbe, 0x8d, 0x39, 0x03, 0xdc, 0x86, 0x39, 0xd0, 0xdf, 0x84, 0x39, 0x32, 0xa4, 0x9a, 0x39, 0xbb, 0x18, 0x87, 0x39, 0xc9, 0x09, 0x82, 0x39,
  0x68, 0x61, 0x9b, 0x39, 0x45, 0x39, 0x80, 0x39, 0x61, 0x00, 0x00, 0x00, 0x6d, 0x6f, 0x64, 0x65, 0x6c, 0x5f, 0x33, 0x2f, 0x62, 0x61, 0x74, 0x63, 0x68, 0x5f, 0x6e, 0x6f, 0x72, 0x6d, 0x61, 0x6c, 0x69, 0x7a, 0x61, 0x74, 0x69, 0x6f, 0x6e, 0x5f, 0x33, 0x38, 0x2f, 0x46, 0x75, 0x73, 0x65, 0x64, 0x42, 0x61, 0x74, 0x63, 0x68, 0x4e, 0x6f, 0x72, 0x6d, 0x56, 0x33, 0x3b,
  0x6d, 0x6f, 0x64, 0x65, 0x6c, 0x5f, 0x33, 0x2f, 0x63, 0x6f, 0x6e, 0x76, 0x32, 0x64, 0x5f, 0x33, 0x32, 0x2f, 0x43, 0x6f, 0x6e, 0x76, 0x32, 0x44, 0x3b, 0x6d, 0x6f, 0x64, 0x65, 0x6c, 0x5f, 0x33, 0x2f, 0x63, 0x6f, 0x6e, 0x76, 0x32, 0x64, 0x5f, 0x33, 0x33, 0x2f, 0x43, 0x6f, 0x6e, 0x76, 0x32, 0x44, 0x00, 0x00, 0x00, 0x01, 0x00, 0x00, 0x00, 0x20, 0x00, 0x00, 0x00,
  0x02, 0xee, 0xff, 0xff, 0x14, 0x00, 0x00, 0x00, 0xe4, 0x00, 0x00, 0x00, 0x0f, 0x00, 0x00, 0x00, 0x00, 0x00, 0x00, 0x02, 0x4c, 0x01, 0x00, 0x00, 0xf4, 0xed, 0xff, 0xff, 0x08, 0x00, 0x00, 0x00, 0x88, 0x00, 0x00, 0x00, 0x10, 0x00, 0x00, 0x00, 0x00, 0x00, 0x00, 0x00, 0x00, 0x00, 0x00, 0x00, 0x00, 0x00, 0x00, 0x00, 0x00, 0x00, 0x00, 0x00, 0x00, 0x00, 0x00, 0x00,
  0x00, 0x00, 0x00, 0x00, 0x00, 0x00, 0x00, 0x00, 0x00, 0x00, 0x00, 0x00, 0x00, 0x00, 0x00, 0x00, 0x00, 0x00, 0x00, 0x00, 0x00, 0x00, 0x00, 0x00, 0x00, 0x00, 0x00, 0x00, 0x00, 0x00, 0x00, 0x00, 0x00, 0x00, 0x00, 0x00, 0x00, 0x00, 0x00, 0x00, 0x00, 0x00, 0x00, 0x00, 0x00, 0x00, 0x00, 0x00, 0x00, 0x00, 0x00, 0x00, 0x00, 0x00, 0x00, 0x00, 0x00, 0x00, 0x00, 0x00,
  0x00, 0x00, 0x00, 0x00, 0x00, 0x00, 0x00, 0x00, 0x00, 0x00, 0x00, 0x00, 0x00, 0x00, 0x00, 0x00, 0x00, 0x00, 0x00, 0x00, 0x00, 0x00, 0x00, 0x00, 0x00, 0x00, 0x00, 0x00, 0x00, 0x00, 0x00, 0x00, 0x00, 0x00, 0x00, 0x00, 0x00, 0x00, 0x00, 0x00, 0x00, 0x00, 0x00, 0x00, 0x00, 0x00, 0x00, 0x00, 0x10, 0x00, 0x00, 0x00, 0x69, 0xe4, 0x93, 0x39, 0x22, 0xc6, 0x99, 0x39,
  0x4a, 0x62, 0x7f, 0x39, 0xed, 0xa3, 0x84, 0x39, 0xa4, 0xe7, 0x9b, 0x39, 0x1a, 0x12, 0xa4, 0x39, 0x25, 0x18, 0xa6, 0x39, 0xd6, 0x53, 0xdf, 0x39, 0x2c, 0x01, 0x8b, 0x39, 0x2d, 0x18, 0xce, 0x39, 0xbe, 0xa5, 0xad, 0x39, 0x4b, 0xb9, 0x90, 0x39, 0xe2, 0x1c, 0x88, 0x39, 0x29, 0x3c, 0x55, 0x39, 0x59, 0x44, 0xb0, 0x39, 0x7e, 0x5e, 0x9f, 0x39, 0x6d, 0x00, 0x00, 0x00,
  0x6d, 0x6f, 0x64, 0x65, 0x6c, 0x5f, 0x33, 0x2f, 0x62, 0x61, 0x74, 0x63, 0x68, 0x5f, 0x6e, 0x6f, 0x72, 0x6d, 0x61, 0x6c, 0x69, 0x7a, 0x61, 0x74, 0x69, 0x6f, 0x6e, 0x5f, 0x33, 0x35, 0x2f, 0x46, 0x75, 0x73, 0x65, 0x64, 0x42, 0x61, 0x74, 0x63, 0x68, 0x4e, 0x6f, 0x72, 0x6d, 0x56, 0x33, 0x3b, 0x6d, 0x6f, 0x64, 0x65, 0x6c, 0x5f, 0x33, 0x2f, 0x64, 0x65, 0x70, 0x74,
  0x68, 0x77, 0x69, 0x73, 0x65, 0x5f, 0x63, 0x6f, 0x6e, 0x76, 0x32, 0x64, 0x5f, 0x33, 0x2f, 0x64, 0x65, 0x70, 0x74, 0x68, 0x77, 0x69, 0x73, 0x65, 0x3b, 0x6d, 0x6f, 0x64, 0x65, 0x6c, 0x5f, 0x33, 0x2f, 0x63, 0x6f, 0x6e, 0x76, 0x32, 0x64, 0x5f, 0x33, 0x31, 0x2f, 0x43, 0x6f, 0x6e, 0x76, 0x32, 0x44, 0x00, 0x00, 0x00, 0x01, 0x00, 0x00, 0x00, 0x10, 0x00, 0x00, 0x00,
  0x6a, 0xef, 0xff, 0xff, 0x28, 0x00, 0x00, 0x00, 0x8c, 0x01, 0x00, 0x00, 0x0e, 0x00, 0x00, 0x00, 0x00, 0x00, 0x00, 0x09, 0x00, 0x02, 0x00, 0x00, 0x00, 0x00, 0x12, 0x00, 0x18, 0x00, 0x14, 0x00, 0x10, 0x00, 0x0c, 0x00, 0x08, 0x00, 0x00, 0x00, 0x00, 0x00, 0x04, 0x00, 0x12, 0x00, 0x00, 0x00, 0x03, 0x00, 0x00, 0x00, 0x10, 0x00, 0x00, 0x00, 0x90, 0x00, 0x00, 0x00,
  0xd0, 0x00, 0x00, 0x00, 0x10, 0x01, 0x00, 0x00, 0x10, 0x00, 0x00, 0x00, 0x00, 0x00, 0x00, 0x00, 0x00, 0x00, 0x00, 0x00, 0x00, 0x00, 0x00, 0x00, 0x00, 0x00, 0x00, 0x00, 0x00, 0x00, 0x00, 0x00, 0x00, 0x00, 0x00, 0x00, 0x00, 0x00, 0x00, 0x00, 0x00, 0x00, 0x00, 0x00, 0x00, 0x00, 0x00, 0x00, 0x00, 0x00, 0x00, 0x00, 0x00, 0x00, 0x00, 0x00, 0x00, 0x00, 0x00, 0x00,
  0x00, 0x00, 0x00, 0x00, 0x00, 0x00, 0x00, 0x00, 0x00, 0x00, 0x00, 0x00, 0x00, 0x00, 0x00, 0x00, 0x00, 0x00, 0x00, 0x00, 0x00, 0x00, 0x00, 0x00, 0x00, 0x00, 0x00, 0x00, 0x00, 0x00, 0x00, 0x00, 0x00, 0x00, 0x00, 0x00, 0x00, 0x00, 0x00, 0x00, 0x00, 0x00, 0x00, 0x00, 0x00, 0x00, 0x00, 0x00, 0x00, 0x00, 0x00, 0x00, 0x00, 0x00, 0x00, 0x00, 0x00, 0x00, 0x00, 0x00,
  0x00, 0x00, 0x00, 0x00, 0x00, 0x00, 0x00, 0x00, 0x00, 0x00, 0x00, 0x00, 0x00, 0x00, 0x00, 0x00, 0x00, 0x00, 0x00, 0x00, 0x10, 0x00, 0x00, 0x00, 0x0a, 0x82, 0x02, 0x3c, 0x6d, 0xa9, 0x9d, 0x3b, 0xd3, 0x3b, 0x15, 0x3c, 0xf9, 0x3e, 0xe3, 0x3b, 0x18, 0x80, 0x91, 0x3b, 0x42, 0xdf, 0x0d, 0x3c, 0xa5, 0xb7, 0x4e, 0x3c, 0xa9, 0xc3, 0x2b, 0x3c, 0x82, 0x1d, 0x39, 0x3c,
  0xbe, 0xb7, 0x15, 0x3c, 0x10, 0xe9, 0x3e, 0x3c, 0x9c, 0x37, 0xd8, 0x3b, 0xe3, 0x4e, 0x27, 0x3c, 0xa2, 0xfc, 0xb8, 0x3b, 0x3c, 0xe4, 0x10, 0x3c, 0xdb, 0xba, 0xdc, 0x3b, 0x10, 0x00, 0x00, 0x00, 0x06, 0x7d, 0x81, 0x3f, 0x1a, 0x6e, 0x1c, 0x3f, 0x5b, 0x11, 0x94, 0x3f, 0x7b, 0x78, 0x61, 0x3f, 0x94, 0x09, 0xbd, 0x3e, 0x65, 0x36, 0x16, 0x3f, 0x19, 0x32, 0x33, 0x3f,
  0x14, 0xc2, 0x3f, 0x3f, 0x47, 0xab, 0xb7, 0x3f, 0x68, 0xcc, 0xac, 0x3e, 0x64, 0xae, 0x2c, 0x3f, 0x5b, 0x8a, 0xdf, 0x3e, 0x45, 0x00, 0xa6, 0x3f, 0x3a, 0x69, 0x03, 0x3f, 0x88, 0xea, 0x66, 0x3f, 0x4a, 0x9a, 0x0b, 0x3f, 0x10, 0x00, 0x00, 0x00, 0x34, 0xde, 0x5d, 0xbf, 0x9c, 0x95, 0x08, 0xbf, 0x3e, 0x18, 0x61, 0xbf, 0x49, 0x21, 0x71, 0xbe, 0x18, 0x5d, 0x10, 0xbf,
  0x83, 0xc3, 0x8c, 0xbf, 0x36, 0x1a, 0xcd, 0xbf, 0x22, 0x6c, 0xaa, 0xbf, 0x01, 0x4e, 0x94, 0xbf, 0x4f, 0x8c, 0x94, 0xbf, 0x3e, 0x6b, 0xbd, 0xbf, 0x2d, 0x87, 0x56, 0xbf, 0x72, 0x30, 0xbd, 0xbe, 0xa9, 0x8a, 0x37, 0xbf, 0x74, 0xc2, 0x8f, 0xbf, 0x65, 0x01, 0x5b, 0xbf, 0x79, 0x00, 0x00, 0x00, 0x6d, 0x6f, 0x64, 0x65, 0x6c, 0x5f, 0x33, 0x2f, 0x62, 0x61, 0x74, 0x63,
  0x68, 0x5f, 0x6e, 0x6f, 0x72, 0x6d, 0x61, 0x6c, 0x69, 0x7a, 0x61, 0x74, 0x69, 0x6f, 0x6e, 0x5f, 0x33, 0x34, 0x2f, 0x46, 0x75, 0x73, 0x65, 0x64, 0x42, 0x61, 0x74, 0x63, 0x68, 0x4e, 0x6f, 0x72, 0x6d, 0x56, 0x33, 0x3b, 0x6d, 0x6f, 0x64, 0x65, 0x6c, 0x5f, 0x33, 0x2f, 0x64, 0x65, 0x70, 0x74, 0x68, 0x77, 0x69, 0x73, 0x65, 0x5f, 0x63, 0x6f, 0x6e, 0x76, 0x32, 0x64,
  0x5f, 0x32, 0x2f, 0x64, 0x65, 0x70, 0x74, 0x68, 0x77, 0x69, 0x73, 0x65, 0x3b, 0x6d, 0x6f, 0x64, 0x65, 0x6c, 0x5f, 0x33, 0x2f, 0x64, 0x65, 0x70, 0x74, 0x68, 0x77, 0x69, 0x73, 0x65, 0x5f, 0x63, 0x6f, 0x6e, 0x76, 0x32, 0x64, 0x5f, 0x33, 0x2f, 0x64, 0x65, 0x70, 0x74, 0x68, 0x77, 0x69, 0x73, 0x65, 0x00, 0x00, 0x00, 0x04, 0x00, 0x00, 0x00, 0x01, 0x00, 0x00, 0x00,
  0x03, 0x00, 0x00, 0x00, 0x03, 0x00, 0x00, 0x00, 0x10, 0x00, 0x00, 0x00, 0x92, 0xf1, 0xff, 0xff, 0x14, 0x00, 0x00, 0x00, 0xb4, 0x02, 0x00, 0x00, 0x0d, 0x00, 0x00, 0x00, 0x00, 0x00, 0x00, 0x09, 0xc8, 0x02, 0x00, 0x00, 0xd4, 0xf0, 0xff, 0xff, 0x10, 0x00, 0x00, 0x00, 0x10, 0x01, 0x00, 0x00, 0x90, 0x01, 0x00, 0x00, 0x10, 0x02, 0x00, 0x00, 0x20, 0x00, 0x00, 0x00,
  0x00, 0x00, 0x00, 0x00, 0x00, 0x00, 0x00, 0x00, 0x00, 0x00, 0x00, 0x00, 0x00, 0x00, 0x00, 0x00, 0x00, 0x00, 0x00, 0x00, 0x00, 0x00, 0x00, 0x00, 0x00, 0x00, 0x00, 0x00, 0x00, 0x00, 0x00, 0x00, 0x00, 0x00, 0x00, 0x00, 0x00, 0x00, 0x00, 0x00, 0x00, 0x00, 0x00, 0x00, 0x00, 0x00, 0x00, 0x00, 0x00, 0x00, 0x00, 0x00, 0x00, 0x00, 0x00, 0x00, 0x00, 0x00, 0x00, 0x00,
  0x00, 0x00, 0x00, 0x00, 0x00, 0x00, 0x00, 0x00, 0x00, 0x00, 0x00, 0x00, 0x00, 0x00, 0x00, 0x00, 0x00, 0x00, 0x00, 0x00, 0x00, 0x00, 0x00, 0x00, 0x00, 0x00, 0x00, 0x00, 0x00, 0x00, 0x00, 0x00, 0x00, 0x00, 0x00, 0x00, 0x00, 0x00, 0x00, 0x00, 0x00, 0x00, 0x00, 0x00, 0x00, 0x00, 0x00, 0x00, 0x00, 0x00, 0x00, 0x00, 0x00, 0x00, 0x00, 0x00, 0x00, 0x00, 0x00, 0x00,
  0x00, 0x00, 0x00, 0x00, 0x00, 0x00, 0x00, 0x00, 0x00, 0x00, 0x00, 0x00, 0x00, 0x00, 0x00, 0x00, 0x00, 0x00, 0x00, 0x00, 0x00, 0x00, 0x00, 0x00, 0x00, 0x00, 0x00, 0x00, 0x00, 0x00, 0x00, 0x00, 0x00, 0x00, 0x00, 0x00, 0x00, 0x00, 0x00, 0x00, 0x00, 0x00, 0x00, 0x00, 0x00, 0x00, 0x00, 0x00, 0x00, 0x00, 0x00, 0x00, 0x00, 0x00, 0x00, 0x00, 0x00, 0x00, 0x00, 0x00,
  0x00, 0x00, 0x00, 0x00, 0x00, 0x00, 0x00, 0x00, 0x00, 0x00, 0x00, 0x00, 0x00, 0x00, 0x00, 0x00, 0x00, 0x00, 0x00, 0x00, 0x00, 0x00, 0x00, 0x00, 0x00, 0x00, 0x00, 0x00, 0x00, 0x00, 0x00, 0x00, 0x00, 0x00, 0x00, 0x00, 0x00, 0x00, 0x00, 0x00, 0x00, 0x00, 0x00, 0x00, 0x00, 0x00, 0x00, 0x00, 0x00, 0x00, 0x00, 0x00, 0x00, 0x00, 0x00, 0x00, 0x00, 0x00, 0x00, 0x00,
  0x00, 0x00, 0x00, 0x00, 0x00, 0x00, 0x00, 0x00, 0x00, 0x00, 0x00, 0x00, 0x00, 0x00, 0x00, 0x00, 0x20, 0x00, 0x00, 0x00, 0x47, 0x93, 0xb4, 0x3b, 0xfc, 0xf6, 0x05, 0x3c, 0x7b, 0x24, 0x24, 0x3c, 0xa3, 0xc5, 0xa8, 0x3b, 0x24, 0xb8, 0xc7, 0x3b, 0x7f, 0x65, 0xee, 0x3b, 0x31, 0xb0, 0xcb, 0x3b, 0x12, 0x0c, 0xbf, 0x3b, 0x72, 0x11, 0xc8, 0x3b, 0xf5, 0x1b, 0x10, 0x3c,
  0xdd, 0xbc, 0x08, 0x3c, 0x2a, 0xad, 0xce, 0x3b, 0x0d, 0x54, 0x13, 0x3c, 0x51, 0x86, 0xfa, 0x3b, 0xf1, 0xf8, 0xe1, 0x3b, 0x4a, 0x2b, 0x98, 0x3b, 0x3e, 0x62, 0xc6, 0x3b, 0x90, 0x4d, 0x9e, 0x3b, 0x82, 0x73, 0xa0, 0x3b, 0x22, 0xb6, 0x09, 0x3c, 0xda, 0x8b, 0xe8, 0x3b, 0xcd, 0x5c, 0x8d, 0x3b, 0x6c, 0xd1, 0xc1, 0x3b, 0x00, 0x8b, 0x02, 0x3c, 0x2e, 0x61, 0xe4, 0x3b,
  0x28, 0x45, 0xe5, 0x3b, 0x6c, 0xaf, 0xf9, 0x3b, 0xf9, 0x6c, 0x05, 0x3c, 0x51, 0xc6, 0x1b, 0x3c, 0x63, 0xe2, 0xdd, 0x3b, 0xcf, 0xb8, 0xd1, 0x3b, 0x6f, 0xd8, 0x25, 0x3c, 0x20, 0x00, 0x00, 0x00, 0x7a, 0x4b, 0x19, 0x3f, 0x0e, 0xeb, 0x84, 0x3f, 0x32, 0xdc, 0xa2, 0x3f, 0x18, 0x74, 0x27, 0x3f, 0x7c, 0x84, 0x34, 0x3f, 0xb4, 0x88, 0x6c, 0x3f, 0xd1, 0x18, 0x4a, 0x3f,
  0x57, 0x64, 0x29, 0x3f, 0x4f, 0x81, 0x46, 0x3f, 0xbd, 0xfb, 0x8e, 0x3f, 0x63, 0xab, 0x87, 0x3f, 0x18, 0x4c, 0x3d, 0x3f, 0x65, 0x2d, 0x92, 0x3f, 0x44, 0x91, 0x78, 0x3f, 0x13, 0x44, 0x5a, 0x3f, 0xcb, 0x94, 0x13, 0x3f, 0x7a, 0xd5, 0x44, 0x3f, 0x28, 0x99, 0x0d, 0x3f, 0x3e, 0x24, 0x0c, 0x3f, 0xc5, 0x91, 0x5b, 0x3f, 0xc2, 0xba, 0x66, 0x3f, 0xff, 0xd5, 0xfd, 0x3e,
  0xc9, 0x4d, 0x40, 0x3f, 0xf0, 0x74, 0x63, 0x3f, 0x83, 0xa0, 0x39, 0x3f, 0x9e, 0x7a, 0x63, 0x3f, 0x3e, 0x7e, 0x48, 0x3f, 0x1f, 0x62, 0x84, 0x3f, 0xe2, 0xa8, 0x75, 0x3f, 0xec, 0xe1, 0x44, 0x3f, 0x5d, 0x15, 0x50, 0x3f, 0xbe, 0x8c, 0xa4, 0x3f, 0x20, 0x00, 0x00, 0x00, 0x20, 0x2a, 0x33, 0xbf, 0x8b, 0x6b, 0x34, 0xbf, 0xa3, 0x9f, 0x3d, 0xbf, 0x63, 0xc1, 0xef, 0xbe,
  0xb4, 0x28, 0x46, 0xbf, 0x5e, 0x43, 0x43, 0xbf, 0x19, 0x11, 0x49, 0xbf, 0xfa, 0x8d, 0x3d, 0xbf, 0x9e, 0xe6, 0x27, 0xbf, 0xb9, 0x60, 0x46, 0xbf, 0x80, 0xb8, 0x5c, 0xbf, 0xd0, 0x0f, 0x4d, 0xbf, 0xfc, 0x7d, 0x41, 0xbf, 0x0d, 0x44, 0x49, 0xbf, 0xff, 0x34, 0x60, 0xbf, 0xf3, 0xfa, 0x16, 0xbf, 0xe1, 0x5f, 0x3b, 0xbf, 0xf5, 0x10, 0x1d, 0xbf, 0x9b, 0x32, 0x1f, 0xbf,
  0xb6, 0xa2, 0x88, 0xbf, 0x10, 0xd3, 0x2a, 0xbf, 0x13, 0x42, 0x0c, 0xbf, 0x5e, 0x57, 0x23, 0xbf, 0xea, 0x85, 0x81, 0xbf, 0x6c, 0x98, 0x62, 0xbf, 0x06, 0xb6, 0x36, 0xbf, 0x0d, 0xbc, 0x77, 0xbf, 0x6d, 0x26, 0x69, 0xbf, 0xc4, 0x8e, 0x9a, 0xbf, 0x9e, 0x26, 0x5c, 0xbf, 0xf8, 0x85, 0x4d, 0xbf, 0x8f, 0x21, 0x78, 0xbf, 0x18, 0x00, 0x00, 0x00, 0x6d, 0x6f, 0x64, 0x65,
  0x6c, 0x5f, 0x33, 0x2f, 0x63, 0x6f, 0x6e, 0x76, 0x32, 0x64, 0x5f, 0x33, 0x32, 0x2f, 0x43, 0x6f, 0x6e, 0x76, 0x32, 0x44, 0x00, 0x00, 0x00, 0x00, 0x04, 0x00, 0x00, 0x00, 0x20, 0x00, 0x00, 0x00, 0x01, 0x00, 0x00, 0x00, 0x01, 0x00, 0x00, 0x00, 0x10, 0x00, 0x00, 0x00, 0x82, 0xf4, 0xff, 0xff, 0x14, 0x00, 0x00, 0x00, 0xb4, 0x02, 0x00, 0x00, 0x0c, 0x00, 0x00, 0x00,
  0x00, 0x00, 0x00, 0x09, 0xc8, 0x02, 0x00, 0x00, 0xc4, 0xf3, 0xff, 0xff, 0x10, 0x00, 0x00, 0x00, 0x10, 0x01, 0x00, 0x00, 0x90, 0x01, 0x00, 0x00, 0x10, 0x02, 0x00, 0x00, 0x20, 0x00, 0x00, 0x00, 0x00, 0x00, 0x00, 0x00, 0x00, 0x00, 0x00, 0x00, 0x00, 0x00, 0x00, 0x00, 0x00, 0x00, 0x00, 0x00, 0x00, 0x00, 0x00, 0x00, 0x00, 0x00, 0x00, 0x00, 0x00, 0x00, 0x00, 0x00,
  0x00, 0x00, 0x00, 0x00, 0x00, 0x00, 0x00, 0x00, 0x00, 0x00, 0x00, 0x00, 0x00, 0x00, 0x00, 0x00, 0x00, 0x00, 0x00, 0x00, 0x00, 0x00, 0x00, 0x00, 0x00, 0x00, 0x00, 0x00, 0x00, 0x00, 0x00, 0x00, 0x00, 0x00, 0x00, 0x00, 0x00, 0x00, 0x00, 0x00, 0x00, 0x00, 0x00, 0x00, 0x00, 0x00, 0x00, 0x00, 0x00, 0x00, 0x00, 0x00, 0x00, 0x00, 0x00, 0x00, 0x00, 0x00, 0x00, 0x00,
  0x00, 0x00, 0x00, 0x00, 0x00, 0x00, 0x00, 0x00, 0x00, 0x00, 0x00, 0x00, 0x00, 0x00, 0x00, 0x00, 0x00, 0x00, 0x00, 0x00, 0x00, 0x00, 0x00, 0x00, 0x00, 0x00, 0x00, 0x00, 0x00, 0x00, 0x00, 0x00, 0x00, 0x00, 0x00, 0x00, 0x00, 0x00, 0x00, 0x00, 0x00, 0x00, 0x00, 0x00, 0x00, 0x00, 0x00, 0x00, 0x00, 0x00, 0x00, 0x00, 0x00, 0x00, 0x00, 0x00, 0x00, 0x00, 0x00, 0x00,
  0x00, 0x00, 0x00, 0x00, 0x00, 0x00, 0x00, 0x00, 0x00, 0x00, 0x00, 0x00, 0x00, 0x00, 0x00, 0x00, 0x00, 0x00, 0x00, 0x00, 0x00, 0x00, 0x00, 0x00, 0x00, 0x00, 0x00, 0x00, 0x00, 0x00, 0x00, 0x00, 0x00, 0x00, 0x00, 0x00, 0x00, 0x00, 0x00, 0x00, 0x00, 0x00, 0x00, 0x00, 0x00, 0x00, 0x00, 0x00, 0x00, 0x00, 0x00, 0x00, 0x00, 0x00, 0x00, 0x00, 0x00, 0x00, 0x00, 0x00,
  0x00, 0x00, 0x00, 0x00, 0x00, 0x00, 0x00, 0x00, 0x00, 0x00, 0x00, 0x00, 0x00, 0x00, 0x00, 0x00, 0x00, 0x00, 0x00, 0x00, 0x00, 0x00, 0x00, 0x00, 0x00, 0x00, 0x00, 0x00, 0x00, 0x00, 0x00, 0x00, 0x00, 0x00, 0x00, 0x00, 0x00, 0x00, 0x00, 0x00, 0x00, 0x00, 0x00, 0x00, 0x00, 0x00, 0x00, 0x00, 0x20, 0x00, 0x00, 0x00, 0x85, 0xd0, 0x99, 0x3b, 0x84, 0x84, 0xa5, 0x3b,
  0x78, 0x76, 0x92, 0x3b, 0x11, 0x2d, 0xa4, 0x3b, 0x6a, 0xb1, 0x8e, 0x3b, 0x2a, 0xba, 0x91, 0x3b, 0xc5, 0x59, 0xb4, 0x3b, 0xf4, 0x43, 0x96, 0x3b, 0xc6, 0x7c, 0x8e, 0x3b, 0x8b, 0xee, 0xb5, 0x3b, 0xa8, 0x22, 0x93, 0x3b, 0x81, 0x76, 0x52, 0x3b, 0xc6, 0x5c, 0xc1, 0x3b, 0xc3, 0x72, 0x95, 0x3b, 0xde, 0x16, 0xc0, 0x3b, 0x94, 0x13, 0x90, 0x3b, 0x69, 0x22, 0x57, 0x3b,
  0x91, 0xdc, 0x99, 0x3b, 0xfb, 0xd8, 0x89, 0x3b, 0xcd, 0x74, 0xa0, 0x3b, 0x60, 0xc6, 0xa9, 0x3b, 0x5c, 0x9e, 0x6a, 0x3b, 0xc3, 0xad, 0x9c, 0x3b, 0x4a, 0xa7, 0x85, 0x3b, 0x1d, 0xd0, 0xa2, 0x3b, 0xed, 0xe7, 0x9a, 0x3b, 0x2f, 0xa0, 0x98, 0x3b, 0xe4, 0xa0, 0xb1, 0x3b, 0xac, 0x2d, 0x9b, 0x3b, 0x3c, 0x5e, 0x95, 0x3b, 0x3a, 0x7a, 0xb2, 0x3b, 0xab, 0x48, 0x93, 0x3b,
  0x20, 0x00, 0x00, 0x00, 0x04, 0xe4, 0xf1, 0x3e, 0x3e, 0xa1, 0x08, 0x3f, 0x8b, 0x51, 0x11, 0x3f, 0x31, 0xbc, 0x06, 0x3f, 0xb7, 0xb7, 0xd7, 0x3e, 0xb6, 0x96, 0x10, 0x3f, 0x11, 0xf1, 0x32, 0x3f, 0x74, 0x78, 0x05, 0x3f, 0xcc, 0x5f, 0x0d, 0x3f, 0xae, 0x82, 0x34, 0x3f, 0x63, 0xfc, 0x11, 0x3f, 0x94, 0xd1, 0xd0, 0x3e, 0x0c, 0xda, 0x3f, 0x3f, 0xdd, 0x47, 0x14, 0x3f,
  0xb0, 0x96, 0x3e, 0x3f, 0x6d, 0xf3, 0x0e, 0x3f, 0x24, 0x74, 0xd5, 0x3e, 0xb7, 0x3c, 0xe6, 0x3e, 0xd4, 0xe7, 0x07, 0x3f, 0xe3, 0x33, 0x1f, 0x3f, 0xd3, 0x72, 0x28, 0x3f, 0x30, 0xff, 0xc8, 0x3e, 0x32, 0xd5, 0x0c, 0x3f, 0xe5, 0x6d, 0xe5, 0x3e, 0x7d, 0x8a, 0x21, 0x3f, 0x1d, 0xb2, 0x19, 0x3f, 0xef, 0x6e, 0x17, 0x3f, 0xa2, 0x3d, 0x30, 0x3f, 0x51, 0xf7, 0x19, 0x3f,
  0x80, 0x33, 0x14, 0x3f, 0xd4, 0x80, 0x08, 0x3f, 0x1a, 0x22, 0x12, 0x3f, 0x20, 0x00, 0x00, 0x00, 0xe4, 0x9c, 0x18, 0xbf, 0x7b, 0x39, 0x24, 0xbf, 0xfa, 0xe8, 0xaa, 0xbe, 0xb7, 0xe4, 0x22, 0xbf, 0x07, 0x94, 0x0d, 0xbf, 0x96, 0xe4, 0xf4, 0xbe, 0x8c, 0x45, 0x0e, 0xbf, 0x6c, 0x17, 0x15, 0xbf, 0xe3, 0xb2, 0xe0, 0xbe, 0xaf, 0x91, 0xed, 0xbe, 0xad, 0x4c, 0xd7, 0xbe,
  0xba, 0x7c, 0xb6, 0xbe, 0xc9, 0xf4, 0x05, 0xbf, 0x53, 0x0b, 0x04, 0xbf, 0x99, 0x96, 0x23, 0xbf, 0x7c, 0xa1, 0xe0, 0xbe, 0x0d, 0xea, 0xc6, 0xbe, 0xd8, 0xa8, 0x18, 0xbf, 0x49, 0xc5, 0x08, 0xbf, 0xc4, 0x66, 0xbe, 0xbe, 0xd0, 0xd1, 0xf9, 0xbe, 0x1f, 0xc9, 0xe8, 0xbe, 0x67, 0x74, 0x1b, 0xbf, 0xfb, 0x9b, 0x04, 0xbf, 0x40, 0x66, 0xef, 0xbe, 0xbd, 0xc2, 0x09, 0xbf,
  0xf6, 0x58, 0x00, 0xbf, 0xd8, 0xb6, 0x01, 0xbf, 0xf3, 0x76, 0x01, 0xbf, 0x08, 0x78, 0x0d, 0xbf, 0x46, 0x15, 0x31, 0xbf, 0x70, 0xa0, 0xac, 0xbe, 0x18, 0x00, 0x00, 0x00, 0x6d, 0x6f, 0x64, 0x65, 0x6c, 0x5f, 0x33, 0x2f, 0x63, 0x6f, 0x6e, 0x76, 0x32, 0x64, 0x5f, 0x33, 0x33, 0x2f, 0x43, 0x6f, 0x6e, 0x76, 0x32, 0x44, 0x00, 0x00, 0x00, 0x00, 0x04, 0x00, 0x00, 0x00,
  0x20, 0x00, 0x00, 0x00, 0x01, 0x00, 0x00, 0x00, 0x01, 0x00, 0x00, 0x00, 0x10, 0x00, 0x00, 0x00, 0x72, 0xf7, 0xff, 0xff, 0x14, 0x00, 0x00, 0x00, 0x74, 0x01, 0x00, 0x00, 0x0b, 0x00, 0x00, 0x00, 0x00, 0x00, 0x00, 0x09, 0x88, 0x01, 0x00, 0x00, 0xb4, 0xf6, 0xff, 0xff, 0x10, 0x00, 0x00, 0x00, 0x90, 0x00, 0x00, 0x00, 0xd0, 0x00, 0x00, 0x00, 0x10, 0x01, 0x00, 0x00,
  0x10, 0x00, 0x00, 0x00, 0x00, 0x00, 0x00, 0x00, 0x00, 0x00, 0x00, 0x00, 0x00, 0x00, 0x00, 0x00, 0x00, 0x00, 0x00, 0x00, 0x00, 0x00, 0x00, 0x00, 0x00, 0x00, 0x00, 0x00, 0x00, 0x00, 0x00, 0x00, 0x00, 0x00, 0x00, 0x00, 0x00, 0x00, 0x00, 0x00, 0x00, 0x00, 0x00, 0x00, 0x00, 0x00, 0x00, 0x00, 0x00, 0x00, 0x00, 0x00, 0x00, 0x00, 0x00, 0x00, 0x00, 0x00, 0x00, 0x00,
  0x00, 0x00, 0x00, 0x00, 0x00, 0x00, 0x00, 0x00, 0x00, 0x00, 0x00, 0x00, 0x00, 0x00, 0x00, 0x00, 0x00, 0x00, 0x00, 0x00, 0x00, 0x00, 0x00, 0x00, 0x00, 0x00, 0x00, 0x00, 0x00, 0x00, 0x00, 0x00, 0x00, 0x00, 0x00, 0x00, 0x00, 0x00, 0x00, 0x00, 0x00, 0x00, 0x00, 0x00, 0x00, 0x00, 0x00, 0x00, 0x00, 0x00, 0x00, 0x00, 0x00, 0x00, 0x00, 0x00, 0x00, 0x00, 0x00, 0x00,
  0x00, 0x00, 0x00, 0x00, 0x00, 0x00, 0x00, 0x00, 0x00, 0x00, 0x00, 0x00, 0x10, 0x00, 0x00, 0x00, 0x8f, 0xd3, 0xd6, 0x3b, 0xc1, 0x5e, 0xdf, 0x3b, 0xd8, 0x7b, 0xb9, 0x3b, 0xf5, 0xab, 0xc0, 0x3b, 0x27, 0x77, 0xe2, 0x3b, 0xba, 0x53, 0xee, 0x3b, 0x3c, 0x44, 0xf1, 0x3b, 0x8c, 0x33, 0x22, 0x3c, 0x93, 0xea, 0xc9, 0x3b, 0x63, 0xaf, 0x15, 0x3c, 0xf3, 0x3c, 0xfc, 0x3b,
  0x57, 0x39, 0xd2, 0x3b, 0x3e, 0xb7, 0xc5, 0x3b, 0x0a, 0xdf, 0x9a, 0x3b, 0x88, 0x05, 0x00, 0x3c, 0x61, 0x7f, 0xe7, 0x3b, 0x10, 0x00, 0x00, 0x00, 0x71, 0x35, 0x1b, 0x3f, 0xcb, 0x75, 0x20, 0x3f, 0x8e, 0x19, 0x1c, 0x3f, 0x9d, 0x2a, 0x3f, 0x3f, 0xd4, 0x28, 0x60, 0x3f, 0xf4, 0xb3, 0x53, 0x3f, 0x2e, 0x10, 0x3c, 0x3f, 0x50, 0x00, 0x7d, 0x3f, 0xbe, 0x56, 0x48, 0x3f,
  0x04, 0x84, 0x94, 0x3f, 0x79, 0x44, 0x7a, 0x3f, 0x5e, 0x34, 0x10, 0x3f, 0xa7, 0x11, 0x14, 0x3f, 0x0f, 0x14, 0x11, 0x3f, 0x8c, 0xbd, 0x53, 0x3f, 0x85, 0x52, 0x62, 0x3f, 0x10, 0x00, 0x00, 0x00, 0xe8, 0x25, 0x55, 0xbf, 0x03, 0xa0, 0x5d, 0xbf, 0xe0, 0x08, 0x38, 0xbf, 0x27, 0xff, 0x21, 0xbf, 0x39, 0xb2, 0x60, 0xbf, 0x13, 0x77, 0x6c, 0xbf, 0xb4, 0x61, 0x6f, 0xbf,
  0x25, 0xef, 0xa0, 0xbf, 0x91, 0x60, 0x31, 0xbf, 0xa4, 0x5b, 0x51, 0xbf, 0x90, 0x82, 0x2f, 0xbf, 0xe4, 0x94, 0x50, 0xbf, 0xd0, 0x2b, 0x44, 0xbf, 0x4c, 0xa9, 0x19, 0xbf, 0xf9, 0x0a, 0x7e, 0xbf, 0x62, 0xb0, 0x65, 0xbf, 0x18, 0x00, 0x00, 0x00, 0x6d, 0x6f, 0x64, 0x65, 0x6c, 0x5f, 0x33, 0x2f, 0x63, 0x6f, 0x6e, 0x76, 0x32, 0x64, 0x5f, 0x33, 0x31, 0x2f, 0x43, 0x6f,
  0x6e, 0x76, 0x32, 0x44, 0x00, 0x00, 0x00, 0x00, 0x04, 0x00, 0x00, 0x00, 0x10, 0x00, 0x00, 0x00, 0x01, 0x00, 0x00, 0x00, 0x01, 0x00, 0x00, 0x00, 0x10, 0x00, 0x00, 0x00, 0x22, 0xf9, 0xff, 0xff, 0x14, 0x00, 0x00, 0x00, 0x74, 0x01, 0x00, 0x00, 0x0a, 0x00, 0x00, 0x00, 0x00, 0x00, 0x00, 0x09, 0x88, 0x01, 0x00, 0x00, 0x64, 0xf8, 0xff, 0xff, 0x10, 0x00, 0x00, 0x00,
  0x90, 0x00, 0x00, 0x00, 0xd0, 0x00, 0x00, 0x00, 0x10, 0x01, 0x00, 0x00, 0x10, 0x00, 0x00, 0x00, 0x00, 0x00, 0x00, 0x00, 0x00, 0x00, 0x00, 0x00, 0x00, 0x00, 0x00, 0x00, 0x00, 0x00, 0x00, 0x00, 0x00, 0x00, 0x00, 0x00, 0x00, 0x00, 0x00, 0x00, 0x00, 0x00, 0x00, 0x00, 0x00, 0x00, 0x00, 0x00, 0x00, 0x00, 0x00, 0x00, 0x00, 0x00, 0x00, 0x00, 0x00, 0x00, 0x00, 0x00,
  0x00, 0x00, 0x00, 0x00, 0x00, 0x00, 0x00, 0x00, 0x00, 0x00, 0x00, 0x00, 0x00, 0x00, 0x00, 0x00, 0x00, 0x00, 0x00, 0x00, 0x00, 0x00, 0x00, 0x00, 0x00, 0x00, 0x00, 0x00, 0x00, 0x00, 0x00, 0x00, 0x00, 0x00, 0x00, 0x00, 0x00, 0x00, 0x00, 0x00, 0x00, 0x00, 0x00, 0x00, 0x00, 0x00, 0x00, 0x00, 0x00, 0x00, 0x00, 0x00, 0x00, 0x00, 0x00, 0x00, 0x00, 0x00, 0x00, 0x00,
  0x00, 0x00, 0x00, 0x00, 0x00, 0x00, 0x00, 0x00, 0x00, 0x00, 0x00, 0x00, 0x00, 0x00, 0x00, 0x00, 0x00, 0x00, 0x00, 0x00, 0x00, 0x00, 0x00, 0x00, 0x10, 0x00, 0x00, 0x00, 0x65, 0x8e, 0xd8, 0x3a, 0x08, 0xe9, 0x16, 0x3b, 0xf3, 0xbd, 0xb7, 0x3a, 0x4f, 0x2f, 0xb6, 0x3a, 0x8a, 0x27, 0xa3, 0x3a, 0x9b, 0x29, 0xab, 0x3a, 0xf4, 0xa7, 0xbb, 0x3a, 0x68, 0xfc, 0xcb, 0x3a,
  0x3f, 0xf0, 0xbc, 0x3a, 0x1e, 0xfd, 0x13, 0x3b, 0x26, 0x8c, 0xc2, 0x3a, 0x3f, 0x94, 0xd5, 0x3a, 0x3f, 0x77, 0x36, 0x3b, 0x59, 0xd7, 0xd5, 0x3a, 0x22, 0x6f, 0x80, 0x3a, 0x14, 0x64, 0x93, 0x3a, 0x10, 0x00, 0x00, 0x00, 0xdb, 0x08, 0xf6, 0x3d, 0x5b, 0xeb, 0x27, 0x3e, 0x03, 0x5f, 0xe0, 0x3d, 0xd4, 0x64, 0xe2, 0x3d, 0x3b, 0xe1, 0x21, 0x3e, 0x48, 0xd3, 0x29, 0x3e,
  0xa4, 0x30, 0x3a, 0x3e, 0x86, 0x8b, 0x33, 0x3e, 0x3e, 0xaa, 0x07, 0x3e, 0xce, 0x00, 0x10, 0x3e, 0xbe, 0x10, 0x17, 0x3e, 0x56, 0xed, 0x04, 0x3e, 0xdc, 0x74, 0x29, 0x3e, 0x65, 0xd1, 0x2d, 0x3e, 0x27, 0xa8, 0xc4, 0x3d, 0x4c, 0x3d, 0x12, 0x3e, 0x10, 0x00, 0x00, 0x00, 0x48, 0xdd, 0x56, 0xbe, 0x36, 0xbb, 0x95, 0xbe, 0x77, 0x4e, 0x36, 0xbe, 0xf0, 0xc2, 0x34, 0xbe,
  0x2a, 0x75, 0xab, 0xbd, 0x60, 0x63, 0x0c, 0xbe, 0x5d, 0x8b, 0x29, 0xbe, 0x6f, 0x64, 0x4a, 0xbe, 0x5f, 0x76, 0x3b, 0xbe, 0x24, 0xd5, 0x92, 0xbe, 0x0e, 0x07, 0x41, 0xbe, 0x17, 0xe9, 0x53, 0xbe, 0x51, 0x0a, 0xb5, 0xbe, 0xaa, 0x2b, 0x54, 0xbe, 0x88, 0xdc, 0xfe, 0xbd, 0x25, 0x01, 0x05, 0xbe, 0x18, 0x00, 0x00, 0x00, 0x6d, 0x6f, 0x64, 0x65, 0x6c, 0x5f, 0x33, 0x2f,
  0x63, 0x6f, 0x6e, 0x76, 0x32, 0x64, 0x5f, 0x33, 0x30, 0x2f, 0x43, 0x6f, 0x6e, 0x76, 0x32, 0x44, 0x00, 0x00, 0x00, 0x00, 0x04, 0x00, 0x00, 0x00, 0x10, 0x00, 0x00, 0x00, 0x03, 0x00, 0x00, 0x00, 0x03, 0x00, 0x00, 0x00, 0x01, 0x00, 0x00, 0x00, 0xd2, 0xfa, 0xff, 0xff, 0x14, 0x00, 0x00, 0x00, 0x48, 0x00, 0x00, 0x00, 0x09, 0x00, 0x00, 0x00, 0x00, 0x00, 0x00, 0x09,
  0x58, 0x00, 0x00, 0x00, 0x14, 0xfa, 0xff, 0xff, 0x10, 0x00, 0x00, 0x00, 0x18, 0x00, 0x00, 0x00, 0x1c, 0x00, 0x00, 0x00, 0x20, 0x00, 0x00, 0x00, 0x01, 0x00, 0x00, 0x00, 0x00, 0x00, 0x00, 0x00, 0x00, 0x00, 0x00, 0x00, 0x01, 0x00, 0x00, 0x00, 0x1a, 0x2c, 0x76, 0x3b, 0x01, 0x00, 0x00, 0x00, 0x95, 0x98, 0xe9, 0x3e, 0x01, 0x00, 0x00, 0x00, 0xc2, 0x3f, 0xf4, 0xbe,
  0x16, 0x00, 0x00, 0x00, 0x6d, 0x6f, 0x64, 0x65, 0x6c, 0x5f, 0x33, 0x2f, 0x64, 0x65, 0x6e, 0x73, 0x65, 0x5f, 0x34, 0x2f, 0x4d, 0x61, 0x74, 0x4d, 0x75, 0x6c, 0x00, 0x00, 0x02, 0x00, 0x00, 0x00, 0x02, 0x00, 0x00, 0x00, 0x20, 0x00, 0x00, 0x00, 0x4a, 0xfb, 0xff, 0xff, 0x14, 0x00, 0x00, 0x00, 0xe4, 0x00, 0x00, 0x00, 0x08, 0x00, 0x00, 0x00, 0x00, 0x00, 0x00, 0x02,
  0x0c, 0x01, 0x00, 0x00, 0x3c, 0xfb, 0xff, 0xff, 0x08, 0x00, 0x00, 0x00, 0x88, 0x00, 0x00, 0x00, 0x10, 0x00, 0x00, 0x00, 0x00, 0x00, 0x00, 0x00, 0x00, 0x00, 0x00, 0x00, 0x00, 0x00, 0x00, 0x00, 0x00, 0x00, 0x00, 0x00, 0x00, 0x00, 0x00, 0x00, 0x00, 0x00, 0x00, 0x00, 0x00, 0x00, 0x00, 0x00, 0x00, 0x00, 0x00, 0x00, 0x00, 0x00, 0x00, 0x00, 0x00, 0x00, 0x00, 0x00,
  0x00, 0x00, 0x00, 0x00, 0x00, 0x00, 0x00, 0x00, 0x00, 0x00, 0x00, 0x00, 0x00, 0x00, 0x00, 0x00, 0x00, 0x00, 0x00, 0x00, 0x00, 0x00, 0x00, 0x00, 0x00, 0x00, 0x00, 0x00, 0x00, 0x00, 0x00, 0x00, 0x00, 0x00, 0x00, 0x00, 0x00, 0x00, 0x00, 0x00, 0x00, 0x00, 0x00, 0x00, 0x00, 0x00, 0x00, 0x00, 0x00, 0x00, 0x00, 0x00, 0x00, 0x00, 0x00, 0x00, 0x00, 0x00, 0x00, 0x00,
  0x00, 0x00, 0x00, 0x00, 0x00, 0x00, 0x00, 0x00, 0x00, 0x00, 0x00, 0x00, 0x00, 0x00, 0x00, 0x00, 0x00, 0x00, 0x00, 0x00, 0x00, 0x00, 0x00, 0x00, 0x00, 0x00, 0x00, 0x00, 0x10, 0x00, 0x00, 0x00, 0xd1, 0xad, 0x6d, 0x39, 0x5c, 0xbb, 0x95, 0x39, 0xf4, 0xa9, 0x93, 0x39, 0xcf, 0xeb, 0xad, 0x39, 0xc6, 0x9f, 0x48, 0x39, 0x92, 0xd3, 0x8a, 0x39, 0x0a, 0x20, 0xbe, 0x39,
  0xa3, 0xa5, 0x46, 0x39, 0x09, 0xf1, 0x45, 0x39, 0x22, 0x51, 0x91, 0x39, 0x5a, 0x59, 0x83, 0x39, 0xe3, 0x94, 0x8e, 0x39, 0x1b, 0x4a, 0xa5, 0x39, 0x6a, 0x68, 0xa5, 0x39, 0xa4, 0xb8, 0x8f, 0x39, 0xb5, 0x64, 0x6d, 0x39, 0x2f, 0x00, 0x00, 0x00, 0x6d, 0x6f, 0x64, 0x65, 0x6c, 0x5f, 0x33, 0x2f, 0x62, 0x61, 0x74, 0x63, 0x68, 0x5f, 0x6e, 0x6f, 0x72, 0x6d, 0x61, 0x6c,
  0x69, 0x7a, 0x61, 0x74, 0x69, 0x6f, 0x6e, 0x5f, 0x33, 0x36, 0x2f, 0x46, 0x75, 0x73, 0x65, 0x64, 0x42, 0x61, 0x74, 0x63, 0x68, 0x4e, 0x6f, 0x72, 0x6d, 0x56, 0x33, 0x00, 0x01, 0x00, 0x00, 0x00, 0x10, 0x00, 0x00, 0x00, 0x72, 0xfc, 0xff, 0xff, 0x14, 0x00, 0x00, 0x00, 0xe4, 0x00, 0x00, 0x00, 0x07, 0x00, 0x00, 0x00, 0x00, 0x00, 0x00, 0x02, 0x0c, 0x01, 0x00, 0x00,
  0x64, 0xfc, 0xff, 0xff, 0x08, 0x00, 0x00, 0x00, 0x88, 0x00, 0x00, 0x00, 0x10, 0x00, 0x00, 0x00, 0x00, 0x00, 0x00, 0x00, 0x00, 0x00, 0x00, 0x00, 0x00, 0x00, 0x00, 0x00, 0x00, 0x00, 0x00, 0x00, 0x00, 0x00, 0x00, 0x00, 0x00, 0x00, 0x00, 0x00, 0x00, 0x00, 0x00, 0x00, 0x00, 0x00, 0x00, 0x00, 0x00, 0x00, 0x00, 0x00, 0x00, 0x00, 0x00, 0x00, 0x00, 0x00, 0x00, 0x00,
  0x00, 0x00, 0x00, 0x00, 0x00, 0x00, 0x00, 0x00, 0x00, 0x00, 0x00, 0x00, 0x00, 0x00, 0x00, 0x00, 0x00, 0x00, 0x00, 0x00, 0x00, 0x00, 0x00, 0x00, 0x00, 0x00, 0x00, 0x00, 0x00, 0x00, 0x00, 0x00, 0x00, 0x00, 0x00, 0x00, 0x00, 0x00, 0x00, 0x00, 0x00, 0x00, 0x00, 0x00, 0x00, 0x00, 0x00, 0x00, 0x00, 0x00, 0x00, 0x00, 0x00, 0x00, 0x00, 0x00, 0x00, 0x00, 0x00, 0x00,
  0x00, 0x00, 0x00, 0x00, 0x00, 0x00, 0x00, 0x00, 0x00, 0x00, 0x00, 0x00, 0x00, 0x00, 0x00, 0x00, 0x00, 0x00, 0x00, 0x00, 0x00, 0x00, 0x00, 0x00, 0x10, 0x00, 0x00, 0x00, 0x61, 0xab, 0xa0, 0x39, 0x4b, 0x19, 0x42, 0x39, 0x0d, 0xb9, 0xb7, 0x39, 0xd9, 0xe1, 0x8b, 0x39, 0x71, 0x20, 0x33, 0x39, 0xf2, 0xa8, 0xae, 0x39, 0xd2, 0x7d, 0xfe, 0x39, 0xe2, 0x75, 0xd3, 0x39,
  0x9f, 0xe5, 0xe3, 0x39, 0x9b, 0x51, 0xb8, 0x39, 0x0a, 0x08, 0xeb, 0x39, 0xeb, 0x17, 0x85, 0x39, 0x77, 0xf9, 0xcd, 0x39, 0x26, 0xbd, 0x63, 0x39, 0x90, 0x60, 0xb2, 0x39, 0x08, 0xdf, 0x87, 0x39, 0x2f, 0x00, 0x00, 0x00, 0x6d, 0x6f, 0x64, 0x65, 0x6c, 0x5f, 0x33, 0x2f, 0x62, 0x61, 0x74, 0x63, 0x68, 0x5f, 0x6e, 0x6f, 0x72, 0x6d, 0x61, 0x6c, 0x69, 0x7a, 0x61, 0x74,
  0x69, 0x6f, 0x6e, 0x5f, 0x33, 0x34, 0x2f, 0x46, 0x75, 0x73, 0x65, 0x64, 0x42, 0x61, 0x74, 0x63, 0x68, 0x4e, 0x6f, 0x72, 0x6d, 0x56, 0x33, 0x00, 0x01, 0x00, 0x00, 0x00, 0x10, 0x00, 0x00, 0x00, 0x9a, 0xfd, 0xff, 0xff, 0x14, 0x00, 0x00, 0x00, 0xe8, 0x00, 0x00, 0x00, 0x06, 0x00, 0x00, 0x00, 0x00, 0x00, 0x00, 0x02, 0x10, 0x01, 0x00, 0x00, 0x8c, 0xfd, 0xff, 0xff,
  0x08, 0x00, 0x00, 0x00, 0x8c, 0x00, 0x00, 0x00, 0x10, 0x00, 0x00, 0x00, 0x00, 0x00, 0x00, 0x00, 0x00, 0x00, 0x00, 0x00, 0x00, 0x00, 0x00, 0x00, 0x00, 0x00, 0x00, 0x00, 0x00, 0x00, 0x00, 0x00, 0x00, 0x00, 0x00, 0x00, 0x00, 0x00, 0x00, 0x00, 0x00, 0x00, 0x00, 0x00, 0x00, 0x00, 0x00, 0x00, 0x00, 0x00, 0x00, 0x00, 0x00, 0x00, 0x00, 0x00, 0x00, 0x00, 0x00, 0x00,
  0x00, 0x00, 0x00, 0x00, 0x00, 0x00, 0x00, 0x00, 0x00, 0x00, 0x00, 0x00, 0x00, 0x00, 0x00, 0x00, 0x00, 0x00, 0x00, 0x00, 0x00, 0x00, 0x00, 0x00, 0x00, 0x00, 0x00, 0x00, 0x00, 0x00, 0x00, 0x00, 0x00, 0x00, 0x00, 0x00, 0x00, 0x00, 0x00, 0x00, 0x00, 0x00, 0x00, 0x00, 0x00, 0x00, 0x00, 0x00, 0x00, 0x00, 0x00, 0x00, 0x00, 0x00, 0x00, 0x00, 0x00, 0x00, 0x00, 0x00,
  0x00, 0x00, 0x00, 0x00, 0x00, 0x00, 0x00, 0x00, 0x00, 0x00, 0x00, 0x00, 0x00, 0x00, 0x00, 0x00, 0x00, 0x00, 0x00, 0x00, 0x00, 0x00, 0x00, 0x00, 0x10, 0x00, 0x00, 0x00, 0xfc, 0xfb, 0x59, 0x39, 0xcc, 0xe7, 0x97, 0x39, 0x25, 0xf4, 0x38, 0x39, 0xe0, 0x62, 0x37, 0x39, 0xfa, 0x3a, 0x24, 0x39, 0x90, 0x4a, 0x2c, 0x39, 0xc1, 0xe4, 0x3c, 0x39, 0xc7, 0x54, 0x4d, 0x39,
  0x36, 0x2f, 0x3e, 0x39, 0xf4, 0xf6, 0x94, 0x39, 0x95, 0xd4, 0x43, 0x39, 0xd0, 0xfc, 0x56, 0x39, 0x49, 0xab, 0xb7, 0x39, 0x5b, 0x40, 0x57, 0x39, 0xf5, 0x47, 0x01, 0x39, 0xe7, 0x5c, 0x14, 0x39, 0x2f, 0x00, 0x00, 0x00, 0x6d, 0x6f, 0x64, 0x65, 0x6c, 0x5f, 0x33, 0x2f, 0x62, 0x61, 0x74, 0x63, 0x68, 0x5f, 0x6e, 0x6f, 0x72, 0x6d, 0x61, 0x6c, 0x69, 0x7a, 0x61, 0x74,
  0x69, 0x6f, 0x6e, 0x5f, 0x33, 0x33, 0x2f, 0x46, 0x75, 0x73, 0x65, 0x64, 0x42, 0x61, 0x74, 0x63, 0x68, 0x4e, 0x6f, 0x72, 0x6d, 0x56, 0x33, 0x00, 0x01, 0x00, 0x00, 0x00, 0x10, 0x00, 0x00, 0x00, 0xa6, 0xff, 0xff, 0xff, 0x10, 0x00, 0x00, 0x00, 0x2c, 0x00, 0x00, 0x00, 0x05, 0x00, 0x00, 0x00, 0x00, 0x00, 0x00, 0x09, 0xb4, 0xfe, 0xff, 0xff, 0x08, 0x00, 0x00, 0x00,
  0x10, 0x00, 0x00, 0x00, 0x01, 0x00, 0x00, 0x00, 0x00, 0x00, 0x00, 0x00, 0x00, 0x00, 0x00, 0x00, 0x01, 0x00, 0x00, 0x00, 0x04, 0x02, 0x81, 0x3d, 0x20, 0x00, 0x00, 0x00, 0x6d, 0x6f, 0x64, 0x65, 0x6c, 0x5f, 0x33, 0x2f, 0x6c, 0x61, 0x6d, 0x62, 0x64, 0x61, 0x5f, 0x32, 0x2f, 0x63, 0x6c, 0x69, 0x70, 0x5f, 0x62, 0x79, 0x5f, 0x76, 0x61, 0x6c, 0x75, 0x65, 0x2f, 0x79,
  0x00, 0x00, 0x0e, 0x00, 0x14, 0x00, 0x00, 0x00, 0x13, 0x00, 0x0c, 0x00, 0x08, 0x00, 0x04, 0x00, 0x0e, 0x00, 0x00, 0x00, 0x10, 0x00, 0x00, 0x00, 0x30, 0x00, 0x00, 0x00, 0x04, 0x00, 0x00, 0x00, 0x00, 0x00, 0x00, 0x09, 0x1c, 0xff, 0xff, 0xff, 0x08, 0x00, 0x00, 0x00, 0x14, 0x00, 0x00, 0x00, 0x01, 0x00, 0x00, 0x00, 0x00, 0x00, 0x00, 0x00, 0x00, 0x00, 0x00, 0x00,
  0x00, 0x00, 0x00, 0x00, 0x01, 0x00, 0x00, 0x00, 0x04, 0x02, 0x81, 0x3d, 0x28, 0x00, 0x00, 0x00, 0x6d, 0x6f, 0x64, 0x65, 0x6c, 0x5f, 0x33, 0x2f, 0x6c, 0x61, 0x6d, 0x62, 0x64, 0x61, 0x5f, 0x32, 0x2f, 0x63, 0x6c, 0x69, 0x70, 0x5f, 0x62, 0x79, 0x5f, 0x76, 0x61, 0x6c, 0x75, 0x65, 0x2f, 0x4d, 0x69, 0x6e, 0x69, 0x6d, 0x75, 0x6d, 0x2f, 0x79, 0x00, 0x00, 0x00, 0x00,
  0x96, 0xff, 0xff, 0xff, 0x18, 0x00, 0x00, 0x00, 0x18, 0x00, 0x00, 0x00, 0x03, 0x00, 0x00, 0x00, 0x00, 0x00, 0x00, 0x02, 0x4c, 0x00, 0x00, 0x00, 0x04, 0x00, 0x04, 0x00, 0x04, 0x00, 0x00, 0x00, 0x39, 0x00, 0x00, 0x00, 0x6d, 0x6f, 0x64, 0x65, 0x6c, 0x5f, 0x33, 0x2f, 0x67, 0x6c, 0x6f, 0x62, 0x61, 0x6c, 0x5f, 0x61, 0x76, 0x65, 0x72, 0x61, 0x67, 0x65, 0x5f, 0x70,
  0x6f, 0x6f, 0x6c, 0x69, 0x6e, 0x67, 0x32, 0x64, 0x5f, 0x33, 0x2f, 0x4d, 0x65, 0x61, 0x6e, 0x2f, 0x72, 0x65, 0x64, 0x75, 0x63, 0x74, 0x69, 0x6f, 0x6e, 0x5f, 0x69, 0x6e, 0x64, 0x69, 0x63, 0x65, 0x73, 0x00, 0x00, 0x00, 0x01, 0x00, 0x00, 0x00, 0x02, 0x00, 0x00, 0x00, 0x00, 0x00, 0x0e, 0x00, 0x18, 0x00, 0x14, 0x00, 0x13, 0x00, 0x0c, 0x00, 0x08, 0x00, 0x04, 0x00,
  0x0e, 0x00, 0x00, 0x00, 0x20, 0x00, 0x00, 0x00, 0x40, 0x00, 0x00, 0x00, 0x02, 0x00, 0x00, 0x00, 0x00, 0x00, 0x00, 0x02, 0x68, 0x00, 0x00, 0x00, 0x0c, 0x00, 0x0c, 0x00, 0x00, 0x00, 0x00, 0x00, 0x08, 0x00, 0x04, 0x00, 0x0c, 0x00, 0x00, 0x00, 0x08, 0x00, 0x00, 0x00, 0x14, 0x00, 0x00, 0x00, 0x01, 0x00, 0x00, 0x00, 0x00, 0x00, 0x00, 0x00, 0x00, 0x00, 0x00, 0x00,
  0x00, 0x00, 0x00, 0x00, 0x01, 0x00, 0x00, 0x00, 0x1a, 0xae, 0x1d, 0x38, 0x2f, 0x00, 0x00, 0x00, 0x6d, 0x6f, 0x64, 0x65, 0x6c, 0x5f, 0x33, 0x2f, 0x64, 0x65, 0x6e, 0x73, 0x65, 0x5f, 0x34, 0x2f, 0x42, 0x69, 0x61, 0x73, 0x41, 0x64, 0x64, 0x2f, 0x52, 0x65, 0x61, 0x64, 0x56, 0x61, 0x72, 0x69, 0x61, 0x62, 0x6c, 0x65, 0x4f, 0x70, 0x2f, 0x72, 0x65, 0x73, 0x6f, 0x75,
  0x72, 0x63, 0x65, 0x00, 0x01, 0x00, 0x00, 0x00, 0x02, 0x00, 0x00, 0x00, 0x14, 0x00, 0x1c, 0x00, 0x18, 0x00, 0x17, 0x00, 0x10, 0x00, 0x0c, 0x00, 0x08, 0x00, 0x00, 0x00, 0x00, 0x00, 0x04, 0x00, 0x14, 0x00, 0x00, 0x00, 0x18, 0x00, 0x00, 0x00, 0x34, 0x00, 0x00, 0x00, 0x6c, 0x00, 0x00, 0x00, 0x01, 0x00, 0x00, 0x00, 0x00, 0x00, 0x00, 0x09, 0x74, 0x00, 0x00, 0x00,
  0x04, 0x00, 0x00, 0x00, 0xff, 0xff, 0xff, 0xff, 0x06, 0x00, 0x00, 0x00, 0x20, 0x00, 0x00, 0x00, 0x01, 0x00, 0x00, 0x00, 0x0c, 0x00, 0x14, 0x00, 0x10, 0x00, 0x0c, 0x00, 0x08, 0x00, 0x04, 0x00, 0x0c, 0x00, 0x00, 0x00, 0x10, 0x00, 0x00, 0x00, 0x1c, 0x00, 0x00, 0x00, 0x20, 0x00, 0x00, 0x00, 0x24, 0x00, 0x00, 0x00, 0x01, 0x00, 0x00, 0x00, 0x80, 0xff, 0xff, 0xff,
  0xff, 0xff, 0xff, 0xff, 0x00, 0x00, 0x00, 0x00, 0x01, 0x00, 0x00, 0x00, 0x17, 0xd8, 0x00, 0x3e, 0x01, 0x00, 0x00, 0x00, 0x3f, 0x57, 0x00, 0x42, 0x01, 0x00, 0x00, 0x00, 0x00, 0x00, 0x00, 0x00, 0x0c, 0x00, 0x00, 0x00, 0x69, 0x6e, 0x70, 0x75, 0x74, 0x5f, 0x34, 0x5f, 0x69, 0x6e, 0x74, 0x38, 0x00, 0x00, 0x00, 0x00, 0x04, 0x00, 0x00, 0x00, 0x01, 0x00, 0x00, 0x00,
  0x06, 0x00, 0x00, 0x00, 0x20, 0x00, 0x00, 0x00, 0x01, 0x00, 0x00, 0x00, 0x0a, 0x00, 0x00, 0x00, 0xd0, 0x00, 0x00, 0x00, 0xb0, 0x00, 0x00, 0x00, 0xa4, 0x00, 0x00, 0x00, 0x88, 0x00, 0x00, 0x00, 0x68, 0x00, 0x00, 0x00, 0x54, 0x00, 0x00, 0x00, 0x40, 0x00, 0x00, 0x00, 0x2c, 0x00, 0x00, 0x00, 0x18, 0x00, 0x00, 0x00, 0x04, 0x00, 0x00, 0x00, 0x64, 0xff, 0xff, 0xff,
  0x06, 0x00, 0x00, 0x00, 0x02, 0x00, 0x00, 0x00, 0x00, 0x00, 0x00, 0x06, 0x74, 0xff, 0xff, 0xff, 0x72, 0x00, 0x00, 0x00, 0x02, 0x00, 0x00, 0x00, 0x00, 0x00, 0x00, 0x72, 0x84, 0xff, 0xff, 0xff, 0x19, 0x00, 0x00, 0x00, 0x02, 0x00, 0x00, 0x00, 0x00, 0x00, 0x00, 0x19, 0x94, 0xff, 0xff, 0xff, 0x37, 0x00, 0x00, 0x00, 0x02, 0x00, 0x00, 0x00, 0x00, 0x00, 0x00, 0x37,
  0xa4, 0xff, 0xff, 0xff, 0x39, 0x00, 0x00, 0x00, 0x02, 0x00, 0x00, 0x00, 0x00, 0x00, 0x00, 0x39, 0xb4, 0xff, 0xff, 0xff, 0x09, 0x00, 0x00, 0x00, 0x04, 0x00, 0x00, 0x00, 0x00, 0x00, 0x00, 0x09, 0x0c, 0x00, 0x0e, 0x00, 0x0d, 0x00, 0x00, 0x00, 0x08, 0x00, 0x04, 0x00, 0x0c, 0x00, 0x00, 0x00, 0x28, 0x00, 0x00, 0x00, 0x02, 0x00, 0x00, 0x00, 0x00, 0x28, 0x0a, 0x00,
  0x08, 0x00, 0x00, 0x00, 0x00, 0x00, 0x04, 0x00, 0x0a, 0x00, 0x00, 0x00, 0x02, 0x00, 0x00, 0x00, 0xf0, 0xff, 0xff, 0xff, 0x04, 0x00, 0x00, 0x00, 0x03, 0x00, 0x00, 0x00, 0x00, 0x00, 0x00, 0x04, 0x0c, 0x00, 0x10, 0x00, 0x0f, 0x00, 0x00, 0x00, 0x08, 0x00, 0x04, 0x00, 0x0c, 0x00, 0x00, 0x00, 0x03, 0x00, 0x00, 0x00, 0x03, 0x00, 0x00, 0x00, 0x00, 0x00, 0x00, 0x03
};


unsigned int model_ResNet_quant_len = 13560;
